{"almonds</w>": 30468, "wich</w>": 5238, "rigs</w>": 42893, "equinox</w>": 32652, "ðŁįĢ": 22865, "kib": 43108, "zou": 38072, "ademy</w>": 49123, "nel": 5476, "jn": 24576, "literature</w>": 11072, "ream": 37242, "oning</w>": 5197, "peas</w>": 15937, "word</w>": 2653, "pugs</w>": 39425, "spca</w>": 37018, "whopping</w>": 34384, "ffect</w>": 29151, "tay</w>": 15073, "jenkins</w>": 16162, "gto</w>": 39071, "wynne</w>": 35951, "unseen</w>": 19069, "jumping</w>": 11476, "struck</w>": 10861, "ðŁĺ¼</w>": 44245, "ky": 2018, "ĉ": 197, "borrow</w>": 22293, "remodel</w>": 37495, "wax": 18789, "ðŁĴļðŁĴļ": 27497, "ĤâĸĤâĸ": 30832, "switzerland</w>": 9912, "sma": 4357, "riesling</w>": 36372, "jaan</w>": 25052, "ðŁİī:</w>": 17310, "appro": 2398, "hes": 30553, "strive</w>": 22140, "emmy</w>": 17089, "orities</w>": 7903, "transitioning</w>": 43586, "ðŁĺĬ</w>": 3020, "allot": 26363, "psychiatry</w>": 39706, "mbles</w>": 28693, "glycer": 48914, "emed</w>": 11028, "shelley</w>": 22497, "coordin": 8187, "bolo</w>": 40236, "arer</w>": 14857, "minster</w>": 11189, "jacques</w>": 17799, "brokers</w>": 28271, "à¸Ķ": 31107, "kermit</w>": 40908, "geograph": 45920, "visual</w>": 7195, "spectac": 7242, "theopen</w>": 41438, "streetwear</w>": 37298, "icecream</w>": 21334, "undoub": 38836, "kul</w>": 31514, "urin": 45245, "entes</w>": 24213, "agave</w>": 42671, "msg": 44430, "jÃ¤": 45381, "aioli</w>": 43949, "thermal</w>": 13689, "macqu": 38365, "enzyme</w>": 40348, "eight</w>": 7910, "flower": 12772, "tots</w>": 24978, "march</w>": 2227, "gah</w>": 27750, "srl</w>": 33808, "bendigo</w>": 48197, "fiscal</w>": 20825, "nadal</w>": 20814, "warms</w>": 32917, "stay</w>": 2277, "drunken</w>": 28196, "addic": 5709, "digg": 43240, "kam": 4104, "eri</w>": 9509, "delu": 18779, "ðŁĺı": 11624, "perennial</w>": 34038, "mates</w>": 5817, "forensic</w>": 23158, "riba</w>": 44992, "nall</w>": 32869, "ouri": 12696, "daysofcode</w>": 36537, "thought</w>": 2449, "rajini</w>": 40622, "arelli</w>": 48619, "horseback</w>": 43673, "jesse</w>": 11770, "ðŁ¥": 4156, "wears</w>": 11869, "mentalhealth": 20593, "tol</w>": 32962, "panzer</w>": 41159, "actresses</w>": 33639, "jody</w>": 32959, "rig": 18462, "immunity</w>": 26254, "at</w>": 536, "ìľ": 20909, "karanjohar</w>": 47621, "evolutionary</w>": 30629, "captain</w>": 4621, "atin</w>": 23047, "ops</w>": 3054, "disaster</w>": 9072, "hurry</w>": 10921, "jock</w>": 34485, "indira</w>": 43887, "trigger</w>": 16158, "dum": 13400, "onix</w>": 27370, "ura": 29337, "rl": 18041, "thibau": 48351, "pn": 14431, "skoda</w>": 38668, "forkids</w>": 48571, "camel": 27005, "mistle": 46800, "alove": 46669, "rope</w>": 9953, "weekend</w>": 1456, "bedrooms</w>": 23996, "tidal</w>": 21949, "ðŁĮ¼</w>": 26312, "retail": 14910, "eto</w>": 33837, "artworks</w>": 26215, "bandana</w>": 39265, "freight</w>": 17023, "doubt</w>": 8671, "jeff</w>": 5550, "mayors</w>": 28501, "check": 7672, "rebuilt</w>": 33137, "racha</w>": 35022, "uel</w>": 24231, "angry</w>": 9054, "paparazzi</w>": 37842, "reverend</w>": 34407, "kelli": 45852, "parisagreement</w>": 47405, "australia</w>": 3444, "karla</w>": 42309, "heck</w>": 14427, "but": 2201, "ptv</w>": 42402, "examination</w>": 20970, "paraguay</w>": 43579, "libs</w>": 26401, "ppm</w>": 42053, "sparty</w>": 36477, "harvest</w>": 8971, "bowl": 26719, "project": 15911, "sco": 1065, "wend": 15166, "myel": 40084, "roth": 17741, "saint": 11274, "ramcharan</w>": 45275, "sions</w>": 4060, "sixers</w>": 25941, "donates</w>": 26960, "cky</w>": 3083, "grape": 19131, "pong</w>": 17710, "attend": 9841, "tson": 42353, "parallel</w>": 18201, "rams</w>": 10292, "gavin": 32974, "disadvantaged</w>": 40577, "yak</w>": 29074, "dunham</w>": 42501, "ighton</w>": 35292, "anglic": 28322, "epit": 21967, "chickpea</w>": 48109, "????": 15936, "bogota</w>": 47059, "term": 40991, "jg": 41986, "toes</w>": 16511, "invincible</w>": 38052, "walkingdead</w>": 14948, "ðŁĺĮ</w>": 12163, "angle": 21749, "cubes</w>": 31413, "solidar": 10415, "ursula</w>": 38390, "commu": 9561, "zac": 25501, "curi": 12640, "seller</w>": 11779, "buffett</w>": 34081, "cun": 12423, "brochure</w>": 25275, "ritter</w>": 34854, "cadets</w>": 19160, "swagg</w>": 47702, "reina</w>": 43847, "twentyon": 39609, "mistakenly</w>": 48494, "permitted</w>": 44380, "invaders</w>": 35188, "sudan</w>": 13474, "blin": 9678, "revenge</w>": 12717, "babs</w>": 36217, "aks</w>": 2953, "arrived</w>": 3514, "grooves</w>": 43954, "rovers</w>": 16373, "anu": 8537, "×": 147, "jamal</w>": 26108, "aerosmith</w>": 43253, "hardwork": 42554, "defenseman</w>": 43714, "cers</w>": 13638, "harcourt</w>": 48093, "katharine</w>": 41473, "ðŁĲ¦</w>": 37260, "ðŁĴģ": 13997, "comedic</w>": 43360, "marriott</w>": 19211, "streets</w>": 6058, "exquisite</w>": 17958, "badoo</w>": 33192, "bren": 5209, "iron": 7699, "recogn": 6343, "foun": 3154, "wrestle</w>": 28086, "fficiency</w>": 27800, "woke</w>": 9331, "imaginary</w>": 30417, "faiz": 41775, "kle</w>": 7432, "motorway</w>": 31808, "Â¥</w>": 20199, "electrifying</w>": 48843, "schwe": 25324, "align</w>": 31160, "incredibly</w>": 9513, "biscu": 11532, "minne": 7083, "ì¶ķíķĺ": 47866, "tym</w>": 45772, "riverfront</w>": 44439, "silk": 25891, "ladder</w>": 16637, "europale": 42473, "viadu": 37012, "newman</w>": 15815, "raz</w>": 19087, "gather": 36345, "dynasty</w>": 14593, "not": 2534, "applaud</w>": 42152, "csu</w>": 31261, "checkpoint</w>": 27531, "choreography</w>": 32749, "dialo": 30709, "calder": 29372, "gotv</w>": 36089, "inspect</w>": 40815, "ðŁĺģðŁĺģ</w>": 19213, "ille": 18213, "wire</w>": 7794, "windy</w>": 13446, "material</w>": 7118, "ible</w>": 37792, "charismatic</w>": 37205, "mache": 43220, "chemo</w>": 36348, "guidance</w>": 12508, "physiology</w>": 32349, "spies</w>": 25374, "hydr": 8031, "powering</w>": 16231, "('</w>": 18235, "prof</w>": 5488, "ecstasy</w>": 47286, "sg": 9599, "ridley</w>": 27883, "wie": 21378, "ðŁı½": 8514, "voice": 13179, "eyang</w>": 28915, "procra": 25361, "shopify</w>": 47949, "hollande</w>": 47690, "aria</w>": 8883, "ketchup</w>": 26724, "gasp</w>": 43762, "sean</w>": 6077, "scroo": 42263, "mesa</w>": 18956, "gutier": 32773, "sack</w>": 14979, "snor": 16590, "newprofile": 14633, "shum": 37383, "canes</w>": 21902, "takeoff</w>": 32789, "coops</w>": 48531, "morow</w>": 40779, "kov</w>": 15156, "sage": 25800, "transferred</w>": 29700, "fdn</w>": 18563, "s</w>": 338, "appo": 5433, "pts</w>": 5886, "anak</w>": 38658, "q": 80, "kiko</w>": 40861, "imposed</w>": 25871, "shred": 19756, "damage</w>": 6822, "tsman</w>": 20046, "cii</w>": 42408, "redneck</w>": 39105, "divine</w>": 10976, "ride": 15816, "medallion</w>": 43469, "juice": 37954, "gartner</w>": 29678, "tain": 2841, "handshake</w>": 38418, "trun": 16163, "persecu": 22878, "vien": 36493, "exp</w>": 19066, "gey</w>": 29289, "chaw": 39639, "ense</w>": 27658, "knee</w>": 9897, "ncwx</w>": 36166, "dump</w>": 17146, "brothers</w>": 4548, "sou</w>": 24293, "kimkardashian</w>": 35400, "texas</w>": 3403, "costly</w>": 30170, "devoted</w>": 24561, "ahouse</w>": 33197, "ãĤ¿": 34941, "cee</w>": 15015, "ldr</w>": 37279, "schi": 13731, "edc</w>": 21245, "heading</w>": 4409, "stant": 41576, "lancashire</w>": 20939, "wrexham</w>": 34479, "dano</w>": 29703, "cabello</w>": 34371, "ox": 3282, "nex": 6897, "merc": 34357, "tanto</w>": 45685, "lassic</w>": 39430, "propag": 12151, "smoother</w>": 44271, "raqqa</w>": 47074, "scotus</w>": 21720, "boro": 26796, "wolf</w>": 5916, "aurora</w>": 13500, "bodily</w>": 49119, "kats</w>": 44213, "grow</w>": 4559, "oster": 31781, "ricardo</w>": 23140, "tor</w>": 1208, "sheets</w>": 12744, "stil</w>": 37519, "suspec": 10298, "bedding</w>": 31761, "foam</w>": 14587, "fas": 4830, "coat</w>": 7356, "pepper": 14861, "moor": 14817, "sina</w>": 19541, "inely</w>": 18234, "neat": 43201, "ðŁİ¬": 36020, "spaces</w>": 9006, "livesmatter</w>": 20348, "quintet</w>": 35125, "ought</w>": 2253, "assau": 7908, "transforms</w>": 30312, "mast</w>": 27920, "leeminho</w>": 37831, "agh</w>": 14402, "valence</w>": 30225, "umbria</w>": 39287, "spears</w>": 20242, "nationalpark</w>": 33060, "activity</w>": 6206, "thul": 28368, "eta</w>": 8761, "orlando</w>": 7827, "submissions</w>": 21566, "natural": 13198, "hanukkah</w>": 34247, "personally</w>": 13885, "seokjin</w>": 45584, "outfy</w>": 34920, "bragg</w>": 38545, "scholar</w>": 12830, "nowadays</w>": 26155, "sotho</w>": 45496, "toys</w>": 7162, "nez</w>": 27388, "ori": 1540, "gatorade</w>": 36354, "fife</w>": 24374, "wwww": 34224, "peterson</w>": 16877, "planter</w>": 34453, "split": 25443, "hague</w>": 28988, "automobile</w>": 25258, "expire</w>": 49315, "dutch</w>": 7991, "zealand</w>": 7618, "kalam</w>": 40142, "strut</w>": 48375, "ca": 772, "bigo": 14278, "shock</w>": 8736, "athome</w>": 38217, "starve</w>": 46957, "receiver</w>": 17659, "https</w>": 30901, "cava</w>": 48682, "soil": 33417, "sous</w>": 32093, "peel</w>": 17158, "nois": 22057, "fren": 2919, "disclosed</w>": 30905, "Ċ": 198, "do": 639, "ioc</w>": 43018, "fted</w>": 5612, "maz</w>": 36215, "hns</w>": 48412, "cardigan</w>": 30501, "coolest</w>": 10566, "abo": 2889, "pivot</w>": 31805, "quar": 3856, "sud": 8067, "cacao</w>": 38022, "carne</w>": 42885, "plateau</w>": 29301, "martinez</w>": 13913, "dayin": 20332, "*.</w>": 31304, "splen": 18552, "tera</w>": 15155, "fashion": 6976, "heights</w>": 8418, "orientation</w>": 16873, "fulfilled</w>": 29919, "dure</w>": 19108, "<</w>": 283, "snack": 47548, "rte</w>": 23322, "lehman</w>": 46094, "fee</w>": 9224, "sway": 26443, "divas</w>": 23534, "momo</w>": 25980, "instin": 23382, "brow</w>": 15895, "rhon": 25882, ".!</w>": 14030, "personnel</w>": 14546, "seedlings</w>": 47933, "fought</w>": 10844, "ðŁĮ²": 34071, "strapped</w>": 40922, "teacher</w>": 4008, "wedding": 11204, "respiratory</w>": 24483, "prod</w>": 11991, "upfront</w>": 42064, "derrick</w>": 21798, "staur": 3709, "rends</w>": 38842, "areclipse</w>": 36030, "eat</w>": 3384, "labour": 19586, "ffxv</w>": 46786, "tek</w>": 18294, "stress": 17297, "seung</w>": 33711, "sudan": 31149, "clifford</w>": 24226, "income</w>": 8044, "ozar": 31848, "entren": 46959, "be": 571, "inees</w>": 13056, "titi": 17434, "ife": 41172, "rosewood</w>": 38686, "ous</w>": 879, "valid</w>": 15126, "planet": 16833, "pace": 40600, "inski</w>": 32630, "willam": 43276, "atives</w>": 5629, "mor": 657, "world": 2334, "masala</w>": 31483, "strait</w>": 22946, "eyel": 17075, "corrections</w>": 37507, "fernandes</w>": 44391, "brunei</w>": 41898, "bela</w>": 30555, "ß": 155, "ones</w>": 1575, "forsyth</w>": 40952, "teas": 23003, "orch": 11893, "embed": 19703, "H": 39, "nage</w>": 41219, "disturb</w>": 39449, "workplaces</w>": 47383, "listener</w>": 34819, "biology</w>": 9796, "dish": 11039, "kinda</w>": 6612, "pedal</w>": 19621, "soni": 34899, "selected</w>": 6881, "cleary</w>": 44342, "ðŁĳıðŁı½": 40796, "puer": 8968, "atwork</w>": 39680, "ausopen</w>": 27831, "quanti": 31540, "âĺ¼</w>": 38877, "charl": 47736, "multit": 27814, "hud": 7169, "ðŁĺĤ)</w>": 42643, "scents</w>": 26336, "swap</w>": 15234, "grayson": 45831, "pros</w>": 14147, "geri": 41664, "perth</w>": 11011, "ben</w>": 3518, "apart</w>": 7803, "lily</w>": 10647, "nasty": 32930, "token</w>": 17134, "feline</w>": 29471, "lease</w>": 14394, "Ø³": 17856, "staytuned</w>": 39285, "johnnie</w>": 47947, "tagne</w>": 47467, "thall</w>": 36007, "swami</w>": 25021, "shed": 16586, "buuren</w>": 47752, "veteransday</w>": 26409, "rue": 38024, "fed": 22518, "volkswagen</w>": 15342, "sheep": 23604, "bound</w>": 4567, "kaj</w>": 40381, "spares</w>": 39505, "accompany</w>": 34142, "cavill</w>": 40492, "searching</w>": 10626, "thx</w>": 5913, "veer": 21243, "smoking</w>": 9038, "pies</w>": 6898, "nelson": 24774, "ðŁĳĩðŁı»": 45811, "other</w>": 1010, "gri</w>": 18484, "Ĉ": 196, "permission</w>": 15822, "unpaid</w>": 32811, "acca</w>": 30883, "licensing</w>": 24219, "peacefully</w>": 30530, "ðŁĺ¨</w>": 38080, "jun": 1637, "boe": 23476, "noxious</w>": 42833, "scientific</w>": 9750, "wsl</w>": 43706, "alerts</w>": 22144, "registry</w>": 30020, "eminem</w>": 22129, "martin": 6929, "wales": 25383, "matti": 39840, "keychain</w>": 31050, "juniper</w>": 33829, "poking</w>": 49169, "revisited</w>": 34302, "eha</w>": 48563, "indies</w>": 23618, "copter</w>": 28049, "palermo</w>": 40635, "sayang</w>": 46322, "tied</w>": 9889, "symboli": 22019, "upper": 22465, "endlessly</w>": 45145, "wynonnaearp</w>": 43755, "cuomo</w>": 25681, "claimed</w>": 9010, "burgring</w>": 40823, "abe": 15856, "designs</w>": 6747, "tane": 13344, "rainbows</w>": 30483, "balcony</w>": 16169, "ayat</w>": 35720, "demean": 37376, "bbers</w>": 36494, "martyrdom</w>": 43110, "depicts</w>": 29340, "hawa": 6067, "softball</w>": 8369, "suspicion</w>": 34910, "close</w>": 2660, "baird</w>": 40474, "doncaster": 38008, "soo": 5517, "E": 36, "wicklow</w>": 39039, "fuzzy</w>": 25876, "mmor": 36657, "enta</w>": 17681, "delivers</w>": 11753, "snatch</w>": 35302, "da": 925, "rette</w>": 33066, "pest</w>": 9425, "quetta</w>": 38326, "tf": 18828, "start</w>": 1572, "cincode": 40930, "sl": 2621, "louis": 8916, "amnesia</w>": 41741, "antarc": 21338, "âģ¦</w>": 34855, "'ve</w>": 1200, "stained</w>": 13751, "awakening</w>": 17017, "erose</w>": 48657, "brazil": 47459, "informat": 29625, "seas</w>": 9556, "xico</w>": 38469, "centre": 26310, "gibbs</w>": 26488, "agate</w>": 25454, "poverty</w>": 9095, "acin": 39442, "papers</w>": 8204, "refr": 34850, "hectares</w>": 44162, "my": 1152, "cep</w>": 48714, "meh": 10512, "humidity</w>": 15469, "basing": 47321, "collision</w>": 15407, "martyred</w>": 39114, "rooster</w>": 30926, "bleeding</w>": 20311, "auctions</w>": 24876, "pkg</w>": 49011, "streetart</w>": 12948, "jewel": 4880, "unner</w>": 31481, "ele": 2084, "antgrasso</w>": 39074, "gamification</w>": 48908, "stripe</w>": 19368, "supplies</w>": 9384, "unhealthy</w>": 30994, "expi": 26850, "burrito</w>": 23473, "edmonton": 37311, "historically</w>": 30445, "handcrafted</w>": 22185, "mson</w>": 12298, "operating</w>": 12218, "diplo</w>": 38115, "tryout</w>": 43832, "ardo": 35735, "symmetry</w>": 31427, "demarcus</w>": 47873, "esday</w>": 19553, "kz": 48743, "pad": 3798, "secur": 2557, "loyola</w>": 32569, "bay": 3631, "mahindra</w>": 31285, "marshall</w>": 9811, "finalfantasy</w>": 44543, "pasture</w>": 34764, "anxi": 9021, "sainsbury</w>": 45879, "overrated</w>": 38214, "sible</w>": 14507, "estas</w>": 39072, "hardworkpaysoff</w>": 49193, "heb</w>": 34515, "gustave</w>": 43170, ".:</w>": 15811, "identified</w>": 15217, "knuckles</w>": 40127, "neutral</w>": 17011, "broad": 3491, "europaleague</w>": 44029, "gw": 7172, "punch</w>": 10730, "harlem</w>": 17771, "geo</w>": 11604, "hil</w>": 17927, "americas": 33343, "applicable</w>": 37927, "albuquerque</w>": 31079, "bradbury</w>": 45097, "natalie": 36634, "revers": 20726, "spicer</w>": 37627, "[...": 39975, "presti": 12245, "ro": 532, "unexpec": 31829, "allison</w>": 16578, "leopards</w>": 40996, "eritrea</w>": 30738, "teaparty</w>": 33065, "screening</w>": 6688, "stv": 27060, "dont</w>": 4632, "broken</w>": 5107, "abdomin": 35335, "est</w>": 1509, "ricky</w>": 12814, "eph": 45752, "bos": 14885, "mal": 1662, "sedona</w>": 46862, "resist": 37345, "darby</w>": 34366, "tape</w>": 5749, "airy</w>": 44453, "fore": 1484, "piles</w>": 31968, "kamloops</w>": 36602, "aloils</w>": 49002, "ðŁĩ¦ðŁĩ·</w>": 41629, "divisions</w>": 33715, "nerd": 24452, "assure</w>": 39161, "ssions</w>": 4137, "strack</w>": 46861, "...)</w>": 14040, "corset</w>": 40408, "sc": 663, "microscope</w>": 29114, "beach": 6068, "conrad</w>": 22073, "J</w>": 297, "],</w>": 34067, "ddd</w>": 24183, "validation</w>": 32536, "chal": 7397, "goodtimes</w>": 22570, "lestwe": 29726, "wiscon": 9857, "+": 10, "leur</w>": 45806, "jenny</w>": 13414, "arte</w>": 12947, "à¤²</w>": 30881, "monday": 6205, "rodi": 49100, "enrol": 44279, "pod</w>": 7446, "woodbridge</w>": 49074, "phoenix": 20615, "lite</w>": 13694, "??\"</w>": 44996, "preneur</w>": 46288, "lake": 6441, "bur": 1039, "owing</w>": 48582, "au</w>": 2566, "locker</w>": 14053, "optimize</w>": 30456, "tators</w>": 37206, "toberfest</w>": 26249, "pend": 3052, "ponce</w>": 43637, "week</w>": 994, "flick</w>": 23414, "recharge</w>": 29396, "pivo": 18009, "tre</w>": 6033, "pri": 955, "wolverhampton</w>": 34518, "supplying</w>": 32739, "midi": 39496, "esc": 3330, "eyed</w>": 15512, "jam</w>": 5201, "includes</w>": 6197, "prawn</w>": 33102, "ere</w>": 642, "fielder</w>": 11046, "çĶŁ": 33375, "tradio</w>": 20689, "hitman</w>": 33290, "epp</w>": 39593, "include</w>": 5942, "gover</w>": 16759, "ding": 7545, "sufi</w>": 39756, "information</w>": 3204, "aqu": 4458, "denis</w>": 18750, "tool": 13718, "extr": 29082, "hehe</w>": 10658, "csd</w>": 36913, "bishop": 20625, "ute</w>": 3130, "mission</w>": 2406, "walkout</w>": 47470, "perry": 28478, "ovich</w>": 27623, "leadership</w>": 3652, "ail</w>": 9154, "witnessing</w>": 33618, "brant</w>": 47592, "becomes</w>": 6766, "goodwood</w>": 30008, "4</w>": 275, "regions</w>": 14530, "pgat": 36514, "conley</w>": 44536, "composer</w>": 12104, "leopold</w>": 45501, "holds</w>": 7286, "keaton</w>": 29975, "remix</w>": 8519, "ruined</w>": 17231, "cures</w>": 38204, "dexter": 45049, "outra": 14262, "configu": 46746, "produc": 1471, "alexandre</w>": 35711, "bogus</w>": 42907, "wou": 5279, "iz</w>": 8407, "caruso</w>": 45192, "audio</w>": 5766, "resource": 43729, "geological</w>": 38380, "julien</w>": 32595, "geospatial</w>": 46238, "supersport</w>": 46319, "marking</w>": 14705, "dancing</w>": 6226, "baller": 49194, "ries</w>": 3059, "disupdates</w>": 45667, "prize</w>": 4521, "luck": 9647, "sau</w>": 19455, "Ø§Ùħ": 47626, "gres</w>": 39670, "ðŁĻıðŁĻı": 18227, "truman</w>": 29414, "ignor": 7653, "rosen": 13214, "collaborated</w>": 42265, "nbaplayoffs</w>": 43860, "emea</w>": 40352, "wheels</w>": 8025, "deja</w>": 46902, "defe": 4148, "arctic": 29716, "womensday</w>": 13956, "ope": 31694, "commander</w>": 11265, "month": 7680, "dwarf</w>": 22643, "photographers</w>": 17141, "gambling</w>": 20287, "danc": 3945, "slaughtered</w>": 46615, "thisdayin": 33641, "ema</w>": 11131, "force</w>": 2869, "had": 10660, "give</w>": 1781, "anned</w>": 27352, "cats</w>": 3989, "eels</w>": 44416, "ush</w>": 18335, "rachel</w>": 8029, "eli</w>": 6292, "fats</w>": 30151, "machado</w>": 42318, "airplanes</w>": 33319, "ises</w>": 5153, "havent</w>": 29130, "*": 9, "shef": 8237, "concier": 28859, "justicefor": 25812, "emperor</w>": 13828, "janet</w>": 15872, "restaur": 3775, "doncaster</w>": 25352, "fermentation</w>": 45817, "arab": 5405, "âĿĹ": 12868, "foundry</w>": 31426, "bron</w>": 10243, "ior": 7354, "vanguard</w>": 27916, "nap": 6568, "à¸ª</w>": 35737, "rajini": 29600, "rusty": 43966, "physi": 13782, "birding</w>": 15851, "honorable</w>": 19498, "two": 17211, "shibu": 36177, "fanci": 35908, "pari</w>": 27979, "signee</w>": 39778, "wing": 8141, "oil</w>": 2870, "issues</w>": 4082, "çµ": 37810, "tarantino</w>": 41180, "lovewins</w>": 47687, "vase</w>": 20431, "distributors</w>": 44240, "dominated</w>": 23048, "neph": 27926, "hellenic</w>": 42544, "hhhhhh</w>": 37278, "hoff</w>": 22751, "compromised</w>": 38576, "voy": 10622, "freak": 20352, "mgm</w>": 27572, "Ğ</w>": 474, "posed</w>": 5206, "chaser</w>": 29560, "manila</w>": 10969, "rying</w>": 7838, "snazzy</w>": 48963, "herald": 27625, "betra": 18436, "âĺĨ": 23941, "cellars</w>": 44976, "vcu</w>": 40102, "eline</w>": 7153, "quitting</w>": 33871, "americanair</w>": 42538, "webcomic</w>": 34286, "guildhall</w>": 47224, "ouses</w>": 33666, "vatican</w>": 21030, "stonewall</w>": 39688, "negotiate</w>": 32969, "igno": 15375, "christchurch</w>": 27100, "tarmac</w>": 44294, "really": 43249, "clare": 18948, "puppets</w>": 28475, "clique</w>": 34983, "barrie</w>": 27090, "prim": 22004, "alaskan</w>": 33898, "mese</w>": 42018, "ohs</w>": 39542, "gearing</w>": 19027, "acher</w>": 17936, "smriti": 49227, "cakeday</w>": 46207, "steed</w>": 48293, "rollercoaster</w>": 38248, "keyan</w>": 27617, "thanked</w>": 32079, "sar": 1808, "interference</w>": 29099, "amplifier</w>": 31743, "govegan</w>": 38886, "nova</w>": 11236, "leonardo</w>": 20282, "leges</w>": 15356, "wouldnt</w>": 41595, "whate": 6695, "shirt": 27576, "dozens</w>": 17883, "punjab": 19405, "advertised</w>": 38987, "!!!!!!!</w>": 15203, "heavenly</w>": 19117, "mbta</w>": 38979, "cube</w>": 11353, "cob</w>": 32863, "taunton</w>": 40681, "foxx</w>": 32993, "util": 28824, "xing</w>": 14383, "nyrd</w>": 47936, "eton</w>": 44339, "wah": 24812, "thursdays</w>": 21444, "have": 18053, "dolce": 30033, "va</w>": 1892, "à³į</w>": 36148, "ath": 1374, "heir</w>": 34007, "sino</w>": 29759, "minimalist</w>": 26641, "mumbai</w>": 6971, "ðŁĲ±": 35710, "steelers</w>": 14430, "cleans</w>": 40827, "cia</w>": 4019, "dominate</w>": 21431, "makes</w>": 2088, "switch": 22480, "psycho": 6472, "piccadilly</w>": 37287, "duke</w>": 7732, "never</w>": 1426, "lyric": 24366, "prob</w>": 24007, "arts": 22040, "ðŁįĮ</w>": 44987, "meto": 25679, "landers</w>": 20019, "disgrace</w>": 29877, "radiance</w>": 45670, "lag</w>": 20394, "glaze</w>": 28112, "rafa": 14352, "inmate</w>": 32341, "B</w>": 289, "soundcheck</w>": 31394, "wood</w>": 1704, "bnw</w>": 35903, "jett</w>": 44541, "hops</w>": 21137, "prompts</w>": 33490, "ker": 2352, "o</w>": 334, "liston</w>": 48041, "blackbird</w>": 38526, "accolades</w>": 46731, "yorker</w>": 23865, "industri": 5082, "desi": 6772, "pinup</w>": 37349, "turquoise</w>": 19899, "ðŁıĥ</w>": 32751, "manhattan</w>": 10961, "railminindia</w>": 35557, "americana</w>": 26221, "gratitude</w>": 12614, "tree": 13354, "amovie</w>": 41062, "plymouth</w>": 13786, "grette</w>": 38774, "ubi": 26758, "happens</w>": 4988, "ðŁĮ¿</w>": 18588, "horrormovies</w>": 46682, "hardrock</w>": 40739, "pastor": 19792, "fant": 4467, "upper</w>": 7067, "Ĭãģ": 30294, "kildare</w>": 45541, "pembroke</w>": 40044, "boycott": 31615, "salinas</w>": 41990, "sample</w>": 9542, "lexi": 44231, "strongh": 38678, "niko</w>": 43771, "chung</w>": 28418, "champions</w>": 4227, "sincere": 24513, "nitro</w>": 30726, "legends</w>": 6396, "loaf</w>": 18273, "jugg": 38628, "advan": 33411, "ruben": 44058, "tiring</w>": 42630, "âĺĢï¸ı": 12817, "nigeria</w>": 6106, "S</w>": 306, "biafra</w>": 36355, "standout</w>": 23131, "bog": 23426, "renshaw</w>": 44445, "care": 2050, "pictures</w>": 3646, "...&</w>": 44979, "chair</w>": 4269, "sirens</w>": 35907, "regret</w>": 14374, "passes</w>": 7633, "brin": 25620, "heem</w>": 30061, "respect": 31411, "shoulders</w>": 18738, "clouds</w>": 6244, "diana</w>": 12803, "turban</w>": 48515, "lexington</w>": 22308, "ometer</w>": 20060, "lect</w>": 45392, "ici": 948, "mant": 25122, "superint": 17615, "ji</w>": 2697, "esteem</w>": 31541, "sesh</w>": 24274, "christma": 12039, "topping</w>": 21071, "migrants</w>": 15814, "joseph</w>": 6478, "deto": 39710, "flir": 24330, "timelapse</w>": 48154, "rebate</w>": 43817, "binge</w>": 22600, "Ãª": 27515, "mabu": 44682, "sÃ£o</w>": 45911, "juliette</w>": 44804, "opes</w>": 37258, "magic</w>": 3778, "kemp</w>": 25325, "popo</w>": 35572, "maple</w>": 10570, "salesman</w>": 37633, "bram</w>": 39456, ",\"</w>": 3823, "civil": 6923, "frequ": 9211, "disrupted</w>": 46674, "kendal</w>": 44836, "dong</w>": 31478, "zm</w>": 43691, "brane</w>": 32340, "vid": 17233, "ddled</w>": 38392, "kappa</w>": 20239, "mclaren": 37381, "middlesbrough</w>": 32436, "aley</w>": 21635, "entic</w>": 10340, "uniof": 21218, "yawn</w>": 48643, "flavor</w>": 11818, "tunesapp</w>": 32550, "guj": 34935, "realize</w>": 7538, "pex</w>": 43765, "cumb": 10858, "principal": 33599, "ask": 11027, "ðŁĴ©": 48621, "caleb</w>": 19619, "regre": 8627, "thread": 31108, "maternal</w>": 26131, "seymour</w>": 25850, "desch": 49209, "confl": 8173, "pairing</w>": 16313, "alize</w>": 10268, ".\"": 18650, "aph": 16341, "submit</w>": 10423, "gorman</w>": 35741, "australi": 13798, "customer": 24035, "vein</w>": 29169, "lumia</w>": 31912, "i</w>": 328, "licen": 6706, "zucchini</w>": 29873, "schwab</w>": 47602, "gang": 8066, "stoner</w>": 29115, "curfew</w>": 48826, "davin": 43187, "christophe</w>": 45486, "pillows</w>": 26499, "pistor": 48162, "re</w>": 810, "bloss": 10017, "elsa</w>": 22050, "reserves</w>": 19705, "bbl</w>": 21961, "superheroes</w>": 23334, "ink</w>": 967, "volvo</w>": 16906, "allowing</w>": 12458, "ÄŁ": 26540, "niger": 4524, "aggie</w>": 37618, "cirque</w>": 36049, "festivals</w>": 17834, "f</w>": 325, "infec": 26088, "storing</w>": 40087, "penske</w>": 47154, "motto</w>": 23338, "kana</w>": 35178, "transplant</w>": 18771, "closest</w>": 14975, "vita</w>": 15700, "correspon": 20203, "pooh</w>": 27103, "organizing</w>": 15779, "liar</w>": 16334, "yofthe": 43983, "base": 2776, "mug</w>": 9722, "telethon</w>": 49266, "yet</w>": 2296, "fundament": 18852, "clapton</w>": 37683, "gp": 19329, "criminal": 30197, "tp": 23760, "guter": 44963, "dstv</w>": 35027, "à¤¶</w>": 43181, "eras</w>": 39090, "casualty</w>": 31222, "goodfood</w>": 46844, "initiated</w>": 27756, "amo": 4833, "ck": 916, "gospel</w>": 11313, "springtraining</w>": 49364, "street": 4839, "ðŁĹ£</w>": 18583, "supermoon</w>": 36571, "aama": 45018, "hall": 6850, "decline</w>": 15084, "mous": 24837, "direct": 43224, "hou</w>": 10122, "duel</w>": 27143, "mau</w>": 23033, "eo</w>": 11712, "ellor</w>": 14594, "tornadoes</w>": 28254, "about": 20204, "he": 651, "pol</w>": 7649, "jkt</w>": 21494, "jacqueline</w>": 22843, "pfc</w>": 35007, "ðŁĺįðŁĺįðŁĺį": 30614, "mamamoo</w>": 36012, "policing</w>": 20969, "tell": 16069, "ðŁĴī": 44316, "paradise": 45869, "suited</w>": 25919, "intentional</w>": 29536, "select</w>": 8690, "side</w>": 1145, "identify</w>": 10949, "rental</w>": 12193, "ovo": 41920, "à¤¾": 37973, "dging</w>": 9565, "roberto</w>": 16227, "ãĤ¸ãĥ": 43491, "ium</w>": 10762, "dispos": 45177, "laz": 18806, "mystic": 36264, "jeet</w>": 30944, "night": 3870, "troubad": 49037, "forecast</w>": 7361, "oates</w>": 47094, "ðŁĻĬ</w>": 16636, "discer": 49140, "anno": 9901, "twinpeaks</w>": 32042, "key</w>": 1458, "ure": 5514, "itter</w>": 11456, "iteration</w>": 38790, "bible</w>": 7583, "dome": 8515, "migration</w>": 11891, "gula</w>": 27426, "premiering</w>": 32615, "sachs</w>": 31451, "vert</w>": 11742, "animations</w>": 42870, "tranquil</w>": 35764, "crossfit</w>": 20395, "retaining</w>": 35571, "bachelor</w>": 16766, "logos</w>": 24879, "aweed</w>": 29724, "jeanette</w>": 48167, "venge": 27757, "floats</w>": 33272, "elizabeth": 22397, "cpu</w>": 27700, "notified</w>": 39454, "cas": 1671, "ìĻ": 39405, "dhi</w>": 26166, "cba</w>": 38472, "uck</w>": 34189, "comman": 39780, "conveni": 33278, "wallpapers</w>": 29841, "colonel</w>": 22674, "thenburg</w>": 45209, "baahu": 34145, "evol": 5350, "skinner</w>": 30261, "indicator</w>": 24776, "cramer</w>": 44592, "coulter</w>": 42291, "calm": 34990, "kaeper": 30070, "das": 9940, "raffle</w>": 13752, "rical</w>": 18109, "tobe": 17534, "lorna</w>": 46316, "tsm</w>": 43452, "montenegro</w>": 30378, "vene": 5365, "lulu": 32052, "cush": 43731, "chitec": 39862, "ec": 747, "chool</w>": 29578, "anushka</w>": 39822, "field": 7571, "flirting</w>": 35243, "compensation</w>": 18663, "archan": 33359, "âĺĨ</w>": 13439, "mars": 41469, "russian</w>": 4868, "emo": 3738, "bookboost</w>": 31257, "luther": 21848, "à¹Ī</w>": 11722, "sut</w>": 28956, "sai</w>": 10886, "authentic": 41266, "bellevue</w>": 32715, "expanding</w>": 15755, "humble</w>": 10889, "rede": 10913, "performed</w>": 9997, "condemns</w>": 32092, "generation</w>": 4883, "announced</w>": 4103, "puzz": 19760, "dolan</w>": 27200, "pes</w>": 2598, "eternally</w>": 48486, "presents</w>": 4215, "rag</w>": 20687, ".;</w>": 47596, "haras": 26644, "mez</w>": 46833, "supp": 1023, "took</w>": 2280, "ubs</w>": 43851, "diffe": 1967, "dema": 40268, "ando</w>": 5986, "too": 1843, "misery</w>": 28360, "mlp</w>": 23620, "loop": 19606, "bowie</w>": 13036, "nagoya</w>": 43303, "downe</w>": 46501, "äº": 21078, "grand</w>": 2991, "beaufort</w>": 45423, "smu": 10878, "industrial</w>": 7520, "kale</w>": 16625, "viewing</w>": 7124, "ï¸ı@</w>": 34600, "used</w>": 2026, "abar": 17860, "bbcnews</w>": 29370, "ðŁĳİ": 39702, "solitary</w>": 33094, "tatum</w>": 26103, "hok</w>": 47167, "dartmoor</w>": 31477, "rowed</w>": 22615, "proje": 48345, "ðŁĺĥ": 14079, "realising</w>": 39537, "theforce": 40002, "viet": 17558, "annak": 41720, "best</w>": 949, "sessions</w>": 6327, "notre": 24397, "ðŁ¥ĥ</w>": 47790, "het": 37527, "annex</w>": 46389, "behaviors</w>": 37741, "pann": 42302, "stone</w>": 2441, "borne": 42910, "tless</w>": 17427, "manship</w>": 15460, "generators</w>": 41917, "sime": 28329, "comedy": 19346, "oppos": 10091, "eo": 16054, "advertisement</w>": 18713, "weller</w>": 40921, "auth": 2381, "bella</w>": 10418, "elector": 16465, "ethiop": 10897, "means</w>": 3494, "kurt": 31903, "jason": 10009, "atically</w>": 13558, "auditi": 37377, "vel": 942, "foss": 14240, "impeachment</w>": 32979, "stuffing</w>": 31612, "raisethe": 47109, "relations</w>": 10100, "vii</w>": 17759, "V</w>": 309, "cheaper</w>": 17776, ".\"</w>": 1081, "ðŁĳ¸</w>": 36645, "friendly</w>": 4681, "union</w>": 3503, "gonzale": 17512, "symptoms</w>": 12956, "dolly": 43281, "drafts</w>": 29194, "sst</w>": 40396, "ennedy</w>": 46266, "battery</w>": 7870, "naps</w>": 31317, "âī": 22684, "stranger": 35541, "Ô": 144, "unites</w>": 32061, "arbor": 33516, "rewarding</w>": 23351, "ðŁĶ«": 38116, "grp</w>": 27321, "zazzle</w>": 47857, "leon": 6581, "uke": 48836, "libyan</w>": 42319, "delay</w>": 10934, "juda": 32478, "applying</w>": 17965, "committees</w>": 40504, "anfield</w>": 26993, "candace</w>": 45623, "rockstargames</w>": 27516, "correc": 5011, "gloss</w>": 22014, "pora</w>": 23537, "receives</w>": 10027, "apricot</w>": 30815, "faux</w>": 19429, "jol</w>": 36470, "ntv": 24807, "aza</w>": 22883, "memories</w>": 4304, "guest</w>": 3781, "dd</w>": 3766, "alman": 29394, "stamp": 28694, "pit": 2946, "rial</w>": 15200, "à©": 32086, "loona</w>": 48137, "eddy</w>": 25959, "âĢįâĻĤï¸ı": 21779, "gerber</w>": 45058, "ðŁĺł</w>": 34094, "arec": 18136, "uc": 4903, "classicalmusic</w>": 27806, "malt</w>": 21688, "shenando": 44666, "insurance</w>": 5870, "hemingway</w>": 33470, "lina</w>": 26110, "thof": 18943, "terror": 9596, "detectives</w>": 27994, "pressures</w>": 38487, "truth</w>": 4319, "dson</w>": 40310, "soybean</w>": 34606, "gov</w>": 4564, "bohemian</w>": 25753, "knife": 44176, "********": 42974, "adams</w>": 7942, "foreig": 26497, "passer</w>": 48544, "whist": 13640, "ater</w>": 5877, "taps</w>": 23267, "mondaymotivation</w>": 8198, "announ": 1806, "chp</w>": 35896, "tr": 635, "ðŁ¤ł</w>": 36737, "mahesh": 33448, "accomplishments</w>": 24965, "humorous</w>": 38173, "eyou": 31996, "roud</w>": 28375, "pdp</w>": 24601, "underworld</w>": 34760, "peregr": 37479, "fleece</w>": 25038, "unsung</w>": 33015, "vt</w>": 10291, "ordinance</w>": 38583, "paras": 15198, "bec</w>": 10773, "mcc</w>": 21192, "stationery</w>": 33851, "äºº": 36839, "elliot</w>": 20761, "clergy</w>": 42635, "corsair</w>": 42367, "limestone</w>": 27272, "generations</w>": 12247, "mikha": 30999, "dallas": 27414, "madness</w>": 8755, "Ý": 153, "cb": 4034, "ttc</w>": 27668, "gwin": 43005, "ðŁĴŀðŁĴŀ</w>": 36448, "faculty</w>": 9504, "andum</w>": 47266, "gie</w>": 3991, "charm</w>": 10876, "ñ": 173, "dempsey</w>": 30188, "salutes</w>": 32762, "takeover</w>": 11863, "mornings</w>": 12106, "crusaders</w>": 31319, "diplomats</w>": 44126, "reproductive</w>": 25522, "dor</w>": 8695, "gun": 2748, "felony</w>": 31068, "medic</w>": 35441, "baron": 48371, "sharepoint</w>": 39213, "teddy": 25758, "gyne": 45836, "limbs</w>": 34886, "dayz</w>": 35949, "jane</w>": 6736, "micky</w>": 43011, "just": 1770, "underattack</w>": 35075, "wildatlantic": 35500, "licking</w>": 33013, "roc": 3268, "scarborough</w>": 24254, "bach</w>": 8758, "pancy</w>": 41625, "paytm</w>": 45352, "staff</w>": 2813, "hutch": 31018, "purÃ©e</w>": 40981, "manas": 44188, "swachhb": 31898, "decor": 5148, "compares</w>": 25104, "ðŁĺĳ</w>": 18937, "santac": 28876, "reach</w>": 4279, "deandre</w>": 43635, "yung</w>": 17676, "abun": 20544, "jy": 20979, "ght": 1413, "teammates</w>": 13921, "navi": 16159, "chron": 5577, "eats</w>": 13188, "cowboy": 25833, "gamergate</w>": 25961, "uhhh</w>": 45270, "yte</w>": 48172, "vacation</w>": 6561, "traitors</w>": 42633, "accounts</w>": 9974, "ãĥ«": 33257, "psal": 13859, "att": 1017, "kwe": 26050, "anan": 37215, "mello</w>": 47594, "illustrating</w>": 43322, "accessory</w>": 20417, "quiche</w>": 47723, "lished</w>": 22620, "nam</w>": 12344, "honor</w>": 3402, "followed</w>": 6499, "niv</w>": 47300, "technologies</w>": 10040, "jung": 13086, "test": 7738, "rohing": 23600, "illac</w>": 17218, "han": 1545, "engaging</w>": 13060, "trol": 10306, "horticul": 27141, "salted</w>": 26313, "redsox</w>": 19144, "patton</w>": 29026, "entertain</w>": 23510, "jetblue</w>": 45021, "organi": 3636, "eclub</w>": 38983, "ngc</w>": 29046, "sensiti": 20531, "es</w>": 542, "practicing</w>": 12750, "limitless</w>": 35833, "armad": 37897, "âŃĲï¸ı</w>": 10251, "lak</w>": 26793, "stalks</w>": 45886, "Ã©e</w>": 13489, "corner": 18509, "terracotta</w>": 45123, "oxo</w>": 37088, "clever": 30977, "unwanted</w>": 25285, "operative</w>": 28380, "sii</w>": 36672, "deborah</w>": 22150, "offended</w>": 30765, "addison</w>": 32369, "')</w>": 19175, "pakistani</w>": 14050, "outcomes</w>": 14016, "joyce": 43753, "dirt": 31415, "enjoys</w>": 17024, "scribe</w>": 36228, "ruto</w>": 43702, "tox": 7742, "ruption</w>": 35403, "finity</w>": 21273, "user": 21248, "whit": 4398, "suici": 16372, "seis": 25559, "pont</w>": 22997, "compost</w>": 33307, "smd</w>": 34582, "duh</w>": 26716, "cog</w>": 35960, "deaf": 28229, "nikita</w>": 37118, "bullish</w>": 22142, "retains</w>": 42583, "aster": 11013, "poor</w>": 3665, "hindustan</w>": 46553, "anime": 23314, "naomi</w>": 20173, "waste</w>": 6065, "robles</w>": 47646, "bla": 2205, "dipl": 8490, "metab": 16150, "lunes</w>": 35648, "basel</w>": 20903, "prun": 29029, "ÑĦ": 27993, "transformation</w>": 7832, "giddy</w>": 40894, "mus</w>": 8103, "carlo</w>": 15266, "Ã": 127, "dengue</w>": 41932, "âĺħâĺħ": 12681, "dangers</w>": 23726, "greeted</w>": 24546, "ëĤ": 27252, "twd": 29440, "renal</w>": 36096, "acquires</w>": 27376, "produce</w>": 7529, "cel</w>": 7597, "tds</w>": 20238, "chronicles</w>": 18905, "somer": 9656, "purchases</w>": 21887, "stati": 9622, "disgusted</w>": 41977, "attic</w>": 26766, "opponent</w>": 17002, "stewardship</w>": 36720, "adap": 6341, "ê¹Ģ": 25203, "ankle</w>": 14777, "regulating</w>": 48156, "guinness</w>": 16648, "campe": 16672, "confined</w>": 40973, "headset</w>": 23883, "meats</w>": 29558, "ef</w>": 1829, "minecraft</w>": 15678, "poff</w>": 28236, "sofi": 41537, "motivating</w>": 37720, "unexpe": 10802, "thinker</w>": 34577, "warren</w>": 9234, "opening</w>": 2516, "farmer</w>": 10474, "tender": 23020, "ðŁ¥º": 43380, "jenn": 33921, "observing</w>": 28359, "ow</w>": 2250, "pered</w>": 24509, "ank</w>": 10029, "essenti": 11163, "kitty": 25067, "alic": 25265, "bashir</w>": 42799, "sera</w>": 28250, "hip": 11725, "paddy": 33103, "isa</w>": 6536, "battle</w>": 3528, "kunst</w>": 37881, "bio</w>": 5162, "aksh": 28226, "sustainable": 23645, "relent": 22213, "translucent</w>": 49052, "crockett</w>": 48313, "apric": 25923, "thorn</w>": 18466, "anyways</w>": 19778, "belles</w>": 40678, "hans": 35172, "lakh</w>": 21487, "zzzz": 35742, "drug</w>": 5600, "yar": 6786, "âĹĨ</w>": 48961, "supercell</w>": 43227, "scroll</w>": 24160, "biggboss</w>": 27056, "ĸ": 244, "hui</w>": 29978, "theatres</w>": 21680, "lick": 29197, "sadler</w>": 45600, "xma": 48805, "doub": 19631, "lola</w>": 19065, "fiel": 1361, "ggin</w>": 17160, "sisters</w>": 6404, "ently</w>": 2922, "lads</w>": 9803, "benz</w>": 13470, "absolute</w>": 7501, "spare</w>": 12615, "perfecto</w>": 42898, "landmarks</w>": 30393, "nireland</w>": 45763, "strasbourg</w>": 39576, "ttr": 47589, "brenner</w>": 42941, "ub": 18430, "pleasures</w>": 29513, "deeper</w>": 15224, "internationalwomensday</w>": 17682, "fontaine</w>": 37864, "ðŁĺĤðŁĺĤðŁĺĤðŁĺĤðŁĺĤðŁĺĤ</w>": 33415, "ðŁĺĻ</w>": 29209, "access</w>": 3822, "minat</w>": 33275, "ure</w>": 726, "ernest</w>": 23006, "ki</w>": 2608, "reflected</w>": 28732, "È</w>": 388, "electron</w>": 33396, "durability</w>": 43671, "blows</w>": 21063, "aux</w>": 8909, "thren</w>": 41776, "âĽ³ï¸ı</w>": 29204, "austri": 8946, "philip": 20748, "radio</w>": 2638, "...:</w>": 34570, "typewriter</w>": 42180, "pleasure</w>": 5854, "tiki</w>": 30107, "unbroken</w>": 49271, "yourself</w>": 3053, "ima": 2414, "dulwich</w>": 47343, "publications</w>": 27334, "tele</w>": 32851, "thewanted</w>": 43008, "_,</w>": 31417, "ggers</w>": 7480, "sou": 1101, "fill": 15904, "karti": 23053, "pue": 20161, "don</w>": 847, "battled</w>": 37837, "yahoo</w>": 16846, "titans</w>": 13066, "suspici": 25714, "magnets</w>": 33030, "enced</w>": 6549, "okc</w>": 18357, "cobra</w>": 21574, "uso</w>": 21539, "neat</w>": 15465, "rose": 6146, "remover</w>": 44267, "wallet</w>": 12154, "elio</w>": 47943, "ground": 9558, "minindia</w>": 28458, "noc</w>": 44420, "à¯": 11259, "farn": 27527, "abbie</w>": 39949, "sima</w>": 35871, "suggested</w>": 18790, "solent</w>": 47783, "plates</w>": 11485, "bunny</w>": 9258, "telegraph</w>": 14713, "euros</w>": 22274, "jpg</w>": 36950, "drafting</w>": 33528, "cigarette</w>": 18548, "duffy</w>": 23599, "loe</w>": 25484, "measured</w>": 23154, "responded</w>": 21121, "basement</w>": 14792, "oled</w>": 46768, "contested</w>": 37845, "lack</w>": 8069, "quiet": 17853, "ox</w>": 12071, "navigation</w>": 20148, "trenches</w>": 38723, "days</w>": 1161, "cts</w>": 6936, "monterey</w>": 23388, "wandering</w>": 22597, "atas</w>": 30057, "scripture</w>": 27186, "smoke": 20381, "flyn": 40676, "birdphotography</w>": 47999, "blooming</w>": 19266, "toc": 41907, "atx": 34849, "madein": 13670, "wartime</w>": 42998, "genesis</w>": 13518, "tv</w>": 1583, "assam</w>": 19930, "alizes</w>": 26181, "lantic</w>": 27678, "maintains</w>": 38335, "bjp": 37264, "doun</w>": 44785, "norm": 10990, "gumb": 40147, "yugo": 48231, "misunderstood</w>": 41574, "âľ¨âľ¨âľ¨</w>": 39424, "suru</w>": 49240, "um</w>": 1008, "museu": 27087, "wildlifewednesday</w>": 48537, "frequencies</w>": 45319, "anniv</w>": 31399, "smes</w>": 26141, "mmmm": 36312, "sacram": 13334, "phili": 4277, "boyle</w>": 22802, "scra": 11187, "mckinney</w>": 33554, "aho": 28114, "rig</w>": 13871, "nasi</w>": 47987, "orchard</w>": 19530, "retain</w>": 24430, "yess</w>": 40189, "nant</w>": 22526, "favor": 1766, "nufc</w>": 15720, "ude": 37016, "gotham</w>": 18299, "narendra</w>": 25848, "chek</w>": 43745, "stain": 3933, "presumably</w>": 42562, "qatar</w>": 10872, "gis": 16266, "ryu": 46656, "intermediate</w>": 24304, "strengthens</w>": 40280, "ane</w>": 3051, "angelina</w>": 28890, "prayer</w>": 6583, "trock</w>": 44368, "err</w>": 25346, "fcbayern</w>": 35033, "hoseok</w>": 38817, "brunswick</w>": 24012, "rm": 20202, "consulate</w>": 34341, "guest": 27349, "rotter": 22614, "gallons</w>": 29335, "plumber</w>": 43478, "flowers</w>": 4023, "terrell</w>": 39494, "ðŁĵ·</w>": 5551, "å": 161, "lorry</w>": 31354, "bookday</w>": 26327, "counted</w>": 23149, "copp": 20937, "anon</w>": 13667, "catap": 39514, "fra": 3368, "moro</w>": 31613, "artes</w>": 48629, "planner</w>": 18083, "cloud": 12965, "carter": 27330, "aston": 24760, "nin</w>": 14145, "default</w>": 21650, "shra": 21360, "transport": 10231, "wan</w>": 4557, "pere</w>": 36300, "market</w>": 2196, "helicopters</w>": 26922, "vingne</w>": 42579, "tribe": 19943, "vsco": 26752, "condu": 40772, "cabs</w>": 42048, "dahl": 45816, "gr</w>": 6062, "despite</w>": 5325, "kalamazoo</w>": 46264, "powered</w>": 7332, "vids</w>": 23035, "accred": 17451, "puerto</w>": 12289, "perks</w>": 17660, "mance</w>": 2324, "vocali": 19134, "inland</w>": 21943, "abor": 8416, "depend</w>": 27371, "dade</w>": 23299, "@/</w>": 28639, "nightmare</w>": 12867, "redcross</w>": 30659, "eid</w>": 13979, "fum</w>": 38393, "sg</w>": 7611, "wnba</w>": 32358, "tata</w>": 19300, "croo": 16443, "abour</w>": 46637, "ventura</w>": 20921, "ould</w>": 859, "ghouse</w>": 38238, "ellis</w>": 11553, "restaurant": 41930, "typo": 18831, "dai</w>": 10632, "wren</w>": 31970, "scripted</w>": 40513, "nen</w>": 15451, "taping</w>": 24355, "ral": 8062, "freddie": 41890, "bullying</w>": 13548, "genealo": 24142, "amish</w>": 24958, "freckles</w>": 48036, "equi": 8752, "nt": 10902, "reese</w>": 20929, "handball</w>": 27988, "swfl</w>": 46607, "trick</w>": 8172, "osha</w>": 33907, "tower</w>": 4730, "mediation</w>": 42829, "xx</w>": 3553, "sey": 6317, "coasters</w>": 31548, "pulp</w>": 25410, "coop": 39917, "tempo</w>": 19625, "tournaments</w>": 23058, "âĺķï¸ı</w>": 15499, "down</w>": 1136, "eyre</w>": 44115, "whati": 23500, "umi": 48772, "homes</w>": 5416, "quack</w>": 45575, "mura": 45176, "zepp": 22977, "louder</w>": 25904, "garwal</w>": 38623, "cherished</w>": 42325, "portu": 7159, "sketchy</w>": 41582, "documents</w>": 14105, "ðŁĳ¯": 25910, "®</w>": 362, "rwby</w>": 39698, "rij": 41097, "mpu": 47156, "morg": 34284, "khalil</w>": 36229, "commemorate</w>": 21242, "infield</w>": 48933, "wt</w>": 12255, "ondo</w>": 29529, "cannon</w>": 15661, "xi</w>": 7376, "ðŁİĤðŁİĤ": 39338, "phila</w>": 47443, "wonder": 2070, "aba": 44204, "recurring</w>": 35912, "mell": 22531, "hammers</w>": 35649, "ðŁı½âĢįâĻĤï¸ı</w>": 43157, "fools</w>": 15946, "librarian</w>": 25148, "powers</w>": 9422, "dip": 19918, "founder</w>": 5145, "berta</w>": 45187, "presley</w>": 30013, "individually</w>": 33782, "newer</w>": 33099, "quit": 19358, "sobs</w>": 43636, "ðŁİĥ": 22622, "lim</w>": 17204, "merseyside</w>": 35382, "finds</w>": 6680, "{": 90, "stie": 38164, "tun": 1415, "agarwal</w>": 43117, "daq</w>": 25381, "leaves</w>": 5579, "spiritual": 46076, "distract</w>": 39309, "vic</w>": 4412, "whenever</w>": 10500, "stadiums</w>": 38852, "caste</w>": 32693, "guarantee</w>": 17421, "fitters</w>": 32364, "illing</w>": 2803, "attacker</w>": 39288, "wiley</w>": 32747, "stripping</w>": 48588, "bel": 1308, "indulgent</w>": 49147, "dare": 14833, "melinda</w>": 46303, "huskies</w>": 20988, "cosplayer</w>": 30215, "philippines</w>": 8149, "lifestyle": 46512, "seng</w>": 29971, "ference</w>": 19984, "govt</w>": 5345, "xm</w>": 18626, "undecided</w>": 49368, "grims": 34861, "hyped</w>": 22507, "none": 29644, "alternative</w>": 8248, "rar</w>": 24605, "yarra</w>": 46824, "isc</w>": 39316, "prize": 48222, "uttarakhand</w>": 35655, "hyun": 11831, "munch": 23587, "ernation</w>": 48796, "arya</w>": 23594, "role": 18485, "goals</w>": 3295, "ãģ®": 21575, "bc</w>": 2162, "lon": 1235, "acou": 8794, "hanni": 19493, "from</w>": 633, "actorvijay</w>": 34033, "centr": 2370, "edy</w>": 4144, "uman</w>": 27112, "hungar": 19420, "tebow</w>": 37797, "ðŁĺĬðŁĺĬðŁĺĬ</w>": 28685, "ðŁļ¨": 12198, "requesting</w>": 33245, "jom": 32152, "shre": 12101, "negotiations</w>": 20433, "earrings</w>": 9136, "isgreat</w>": 34595, "jnr</w>": 37145, "tightly</w>": 37568, "tx</w>": 5200, "pollin": 19152, "sow</w>": 33089, "scol": 13599, "enviro</w>": 46200, "strate": 3532, "ig": 1089, "curling</w>": 18543, "showtime</w>": 15442, "anticipated</w>": 18605, "hula</w>": 40145, "mister": 26949, "gona</w>": 34835, "talked</w>": 10153, "hairstyles</w>": 40627, "frontman</w>": 36775, "aide": 31558, "ledger</w>": 26817, "alove</w>": 37045, "juventus</w>": 16208, "westworld</w>": 42287, "rogerfederer</w>": 40182, "meier</w>": 29812, "kilom": 26285, "sprinter</w>": 36947, "vaccination</w>": 32518, "loff</w>": 31008, "bri</w>": 18636, "humbled</w>": 19682, "unfortun": 10194, "parisian</w>": 38512, "phs</w>": 16495, "ier": 33173, "nutritious</w>": 30387, "invite</w>": 8109, "concert</w>": 3066, "tame": 38557, "ancestors</w>": 24405, "eclip": 30841, "thereal</w>": 41140, "urs</w>": 4794, "mou</w>": 25289, "constant</w>": 13111, "striker</w>": 12448, "pollinators</w>": 36599, "ĵ</w>": 497, "cho</w>": 5150, "ðŁĳĮðŁı¼</w>": 20031, "caramelized</w>": 43854, "substitute</w>": 25340, "apur</w>": 45193, "convoy</w>": 30292, "patriot</w>": 15692, "beetle</w>": 16534, "competence</w>": 31165, "homedecor</w>": 15695, "pover</w>": 29464, "setting</w>": 5264, "mar</w>": 3091, "ligament</w>": 48705, "knocking</w>": 20380, "thium</w>": 21804, "alad": 23074, "ode</w>": 19639, "luigi</w>": 28444, "ira": 4923, "garden</w>": 2756, "coherent</w>": 48450, "tiva</w>": 41886, "songwriter</w>": 13034, "caric": 25337, "vc": 28670, "huntsville</w>": 34544, "gunshot</w>": 49250, "rest</w>": 2539, "sacred": 40612, "offers</w>": 4679, "àµ": 27392, "rp</w>": 8174, "reminds</w>": 8303, "ðŁķº": 33958, "strato": 28878, "dependence</w>": 40243, "zambia</w>": 21671, "ase</w>": 894, "pilgri": 13966, "itv": 20159, "gregation</w>": 20131, "compose</w>": 43659, "sig": 872, "rie</w>": 5322, "cha": 1587, "webcamtoy</w>": 27719, "lids</w>": 41609, "clt</w>": 24236, "rolling": 24250, "opol": 15173, "avec</w>": 25828, "victories</w>": 24577, "talkin</w>": 26040, "vespa</w>": 46029, "atta</w>": 9146, ";-": 35657, "pedic": 35319, "pears</w>": 39565, "gui</w>": 25746, "ãĥ»</w>": 11158, "metallica</w>": 24079, "allevi": 31682, "à¹ī</w>": 13123, "mccaf": 47385, "mav": 25697, "ghosts</w>": 16737, "persecution</w>": 32009, "satu</w>": 45283, "patty": 48741, "blends</w>": 28572, "stepping</w>": 15906, "asg</w>": 34813, "dazz": 17149, "virat</w>": 32473, "ician": 40522, "organisations</w>": 20651, "horan</w>": 26857, "sville</w>": 6741, "brea</w>": 46538, "newport</w>": 14846, "semper": 47391, "cale</w>": 32674, "grind": 25730, "ticket</w>": 4500, "welling</w>": 49165, "kurdi": 23504, "awarenessmonth</w>": 34278, "shenko</w>": 39751, "distin": 11892, "celi": 25567, "lanapar": 47437, "secrets</w>": 9735, "calum</w>": 16405, "bobble</w>": 38796, "manil": 38827, "theme": 38524, "medalists</w>": 43397, "michaels</w>": 23868, "polaris</w>": 37965, "nami": 20393, "baloch</w>": 23173, "wein</w>": 37684, "mole</w>": 23529, "uo</w>": 36162, "fact</w>": 3598, "ishi": 26224, "judgement</w>": 25246, "connol": 27739, "porter</w>": 10318, "sentim": 25102, "optimis": 39459, "barrier</w>": 15706, "ranveerofficial</w>": 42116, "ventilation</w>": 35066, "unstable</w>": 34730, "accounted</w>": 43951, "pilates</w>": 29518, "bari": 21428, "efc</w>": 22065, "asy": 8524, "bumps</w>": 21115, "tang": 10425, "structural</w>": 16899, "begin": 19197, "sinners</w>": 43436, "strokes</w>": 26595, "mccul": 38833, "matty": 31233, "emil": 26794, "chae": 9460, "ðŁĩ®ðŁĩ": 8347, "appeals</w>": 22447, "mccartney</w>": 19958, "reality</w>": 5004, "toughness</w>": 45522, "lasvegas</w>": 17789, "âŀķ</w>": 46526, "additive</w>": 48546, "auga</w>": 22797, "cured</w>": 26248, "conjunction</w>": 34226, "safetyfirst</w>": 43608, "beaten</w>": 10864, "anyone</w>": 2302, "agree</w>": 5953, "morality</w>": 34133, "archipelago</w>": 43025, "beatthe": 40550, "magi": 19270, "jersey</w>": 4471, "prescription</w>": 23061, "sag": 6609, "cox": 25784, "gains": 42751, "suggesti": 15033, "schoo": 20721, "hanoi</w>": 36134, "ðŁĳı</w>": 4829, "maya</w>": 12987, "mustaf": 23596, "sedge</w>": 45288, "ndc</w>": 47564, "nobody</w>": 7009, "flaw</w>": 34978, "bbcsport</w>": 49321, "secs</w>": 28665, "manic</w>": 37825, "intre": 29397, "travelling</w>": 11190, "knocks</w>": 24296, "helps</w>": 5144, "hamradio</w>": 36712, "frederic</w>": 41165, "ìĪ": 32757, "ido": 6763, "waterproof</w>": 17613, "ëı": 31972, "donating</w>": 12621, "gaia</w>": 41269, "rinse</w>": 48320, "kumb": 31391, "peri</w>": 44068, "mah": 7206, "dentally</w>": 10346, "haram</w>": 22950, "biting</w>": 23016, "title": 28033, "espn": 22917, "pokemon</w>": 9528, "razz": 43769, "kers": 30347, "fills</w>": 21750, "landings</w>": 46104, "zone</w>": 4442, "wig</w>": 12216, "some": 1132, "biggie</w>": 28392, "pv</w>": 13495, "faul": 16230, "safari</w>": 14091, "draw": 17675, "ridge": 16580, "fueled</w>": 28792, "seattle</w>": 6274, "aller": 10116, "slip</w>": 12105, "cdc": 41098, "rockefeller</w>": 35476, "ihrithik</w>": 39326, "wal</w>": 6903, "milan</w>": 8552, "classiccar</w>": 46906, "metmuseum</w>": 28207, "$": 3, "trance": 30584, "thinkers</w>": 32779, "wrecking</w>": 36956, "fb</w>": 3307, "lsd</w>": 43766, "nelly</w>": 21166, "shoops</w>": 29956, "prise</w>": 23343, "thief</w>": 18508, "windmill</w>": 34084, "dex": 10030, "jihoon</w>": 44765, "ported</w>": 16879, "mau": 8134, "kirstel</w>": 46483, "souvenir</w>": 24811, "moderating</w>": 34242, "dar": 1377, "bam</w>": 12686, "extensive</w>": 16870, "mess": 2490, "clusive</w>": 41362, "leum</w>": 21571, "cardiovascular</w>": 29291, "saudiarabia</w>": 28680, "landing</w>": 8292, "bray": 26256, "jill": 24136, "age": 4758, "Ãº": 17963, "pa</w>": 2217, "gallery": 36648, "ðŁ¤¤</w>": 26759, "ðŁĶĿ</w>": 29506, "âĺĳï¸ı</w>": 22291, "singh": 19445, "scarves</w>": 29249, "ptsd</w>": 23973, "speeches</w>": 25208, "pak": 13186, "onyx</w>": 31353, "dirk</w>": 28171, "issa</w>": 7560, "sets</w>": 4650, "quind": 32339, "tub</w>": 15450, "vell": 21173, "kel</w>": 7553, "assas": 9603, "submission</w>": 16571, "kapilshar": 48978, "mory</w>": 22633, "pai</w>": 21198, "coli</w>": 15910, "frontiers</w>": 38396, "bhuban": 38729, "leipzig</w>": 41860, "later</w>": 2941, "ribe": 46115, "enquiries</w>": 31901, "boyfriends</w>": 36541, "sour</w>": 12049, "replacing</w>": 18647, "opi</w>": 48994, "shair</w>": 43135, "cell</w>": 5533, "shooting</w>": 3992, "bhat": 23784, "bea</w>": 20925, "timmy</w>": 33252, "george</w>": 3296, "briga": 46448, "genital</w>": 32960, "rogue</w>": 15162, "chance</w>": 2594, "jerk</w>": 23917, "tribal</w>": 16629, "figure</w>": 5274, "ggling</w>": 16523, "fca</w>": 24540, "giveaways</w>": 18974, "invol": 4000, "fidel": 21740, "pomona</w>": 41690, "beings</w>": 17998, "rufus</w>": 39322, "fifawwc</w>": 41329, "shahzad</w>": 45915, "supercars</w>": 32185, "lawless</w>": 39468, "sted": 20426, "dilu": 45242, "affecting</w>": 18448, "hispanic</w>": 22676, "pakistanis</w>": 45707, "insight</w>": 8795, "hoar": 31628, "cinematic</w>": 25602, "overland</w>": 38808, "motivationmonday</w>": 28703, "silverado</w>": 46160, "iteracy</w>": 39634, "lucia</w>": 22290, "quan</w>": 27490, "ðŁĴµ": 47412, "æ</w>": 418, "lerosis</w>": 35455, "algorithms</w>": 26039, "newcastle": 41955, "projec": 1610, "consumer": 34408, "umen</w>": 42832, "pressure</w>": 6083, "crest</w>": 15760, "ich</w>": 1232, "reading</w>": 2337, "haa</w>": 26814, "cole</w>": 8166, "insulated</w>": 42051, "thic": 26107, "quito</w>": 35828, "bulldog": 34828, "stia</w>": 26492, "vic": 1555, "required</w>": 8500, "tariff</w>": 40220, "bruh</w>": 17575, "toxic": 27436, "indo</w>": 18297, "pena</w>": 35788, "bennet</w>": 48536, "severely</w>": 24417, "legacy": 44108, "currents</w>": 35450, "argus</w>": 44300, "ponder</w>": 36863, "edmun": 36561, "uplift</w>": 45389, "strings</w>": 15699, "compliment</w>": 25116, "loa</w>": 39678, "vest": 31657, "sere": 35770, "queu": 32705, "keep": 2924, "chipot": 17702, "guacamole</w>": 40115, "bloom": 7311, "pdx</w>": 16153, "risotto</w>": 31471, "balsam": 29121, "frances</w>": 20803, "slaying</w>": 27812, "dera</w>": 20696, "gobucks</w>": 29175, "forma</w>": 38829, "ert</w>": 3112, "ssa</w>": 6088, "reacting</w>": 40595, "twill</w>": 43703, "aln": 47203, "ffa</w>": 15355, "periph": 35308, "harrogate</w>": 30842, "info": 5680, "environment": 33039, "fica</w>": 26952, "distur": 11732, "poten": 4454, "promised</w>": 11516, "lover</w>": 7168, "communications</w>": 10052, "alba</w>": 25254, "ffer</w>": 11636, "uta": 42706, "cori": 26508, "contests</w>": 32210, "weather": 8808, "arthur</w>": 8550, "reboot</w>": 22385, "naughty</w>": 15101, "yoghurt</w>": 33491, "ws</w>": 799, "entrepreneurs</w>": 11054, "samuel": 30612, "chipp": 39854, "barackobama</w>": 18885, "beside</w>": 13519, "celsius</w>": 47057, "te</w>": 756, "stork</w>": 46452, "pikach": 27268, "bridesmaids</w>": 47754, "smoker</w>": 32348, "infu": 15048, "ales": 44171, "Øº": 48510, "makati</w>": 39402, "positivity</w>": 19966, "wsu</w>": 32913, "infant</w>": 19192, "figaro</w>": 48044, "wearec": 43620, "famous</w>": 4096, "fx</w>": 9025, "texted</w>": 29004, "susan": 19922, "ingen</w>": 19088, "ministry</w>": 8742, "weary</w>": 38766, "wrapped</w>": 9875, "ðŁĴĺ</w>": 10816, "faire": 34745, "womenin": 13062, "moons</w>": 29887, "galerie</w>": 44539, "filmmaking</w>": 18226, "@_</w>": 2692, "basin</w>": 16117, "vardy</w>": 47371, "delightful</w>": 15513, "japanese</w>": 4925, "fluence</w>": 38169, "spoils</w>": 42436, "fontana</w>": 43643, "ðŁĴĥðŁı»</w>": 38624, "trav</w>": 46955, "waldorf</w>": 38227, "navigate</w>": 24400, "boats</w>": 10080, "bouncy</w>": 43415, "2</w>": 273, "aint</w>": 13099, "charming</w>": 12177, "ffins</w>": 17898, "accept": 16447, "rockab": 39353, "celesti": 29497, "wand": 14636, "guk</w>": 20280, "heart</w>": 1936, "depo": 14276, "sparkling</w>": 17893, "disturbed</w>": 29967, "reuben</w>": 40450, "maintain</w>": 12954, "ðŁĩ®ðŁĩ¹": 42034, "sagan</w>": 37193, "xxxx</w>": 22819, "greedy</w>": 33301, "ðŁį": 2011, "greenfield</w>": 39924, "violations</w>": 21969, "queso</w>": 40110, "rah</w>": 8766, "scratching</w>": 44617, "experimental</w>": 16539, "oue</w>": 48838, "quant": 15050, "jual</w>": 38720, "atten</w>": 32408, "sively</w>": 10343, "collections</w>": 12760, "rive</w>": 34917, "norton</w>": 18032, "bho": 19721, "ðŁĴª": 5475, "fasten": 44990, "vers</w>": 2094, "âĿĦ": 8501, "witch</w>": 10083, "law</w>": 2606, "audu": 27934, "apologize</w>": 22879, "course</w>": 2613, "kingston</w>": 15393, "uncommon</w>": 34888, "risk</w>": 4213, "skyline</w>": 14606, "kin</w>": 2667, "event": 10612, "ahs</w>": 16937, "amp</w>": 6259, "arrives</w>": 9905, "catchers</w>": 39060, "adolescent</w>": 36793, "alici": 31630, "wembley</w>": 16579, "informed</w>": 13876, "vg": 40591, "tennis</w>": 5298, "revenues</w>": 33348, "payments</w>": 11832, "fits</w>": 6401, "rb</w>": 7477, "aspiring</w>": 21862, "gring</w>": 40135, "approval</w>": 13549, "alo": 3435, "lamo": 41461, "met": 5249, "shiny</w>": 12190, "scrutiny</w>": 34305, "pti</w>": 10491, "bipartisan</w>": 32266, "curti": 39925, "brunomars</w>": 41156, "ckett</w>": 33899, "sagar</w>": 42518, "concer": 2228, "components</w>": 16816, "yeh</w>": 21331, "miz</w>": 30795, "sega</w>": 16122, "onfox</w>": 29874, "infographics</w>": 33172, "automatically</w>": 20725, "seneca</w>": 33419, "?.</w>": 41251, "predator</w>": 20653, "pse": 19737, "economics</w>": 12625, "crush": 22296, "hormones</w>": 35162, "kins": 31060, "flores</w>": 21537, "glades</w>": 37432, "patient": 30139, "weak</w>": 10128, "prop</w>": 16254, "interactions</w>": 22162, "dusting</w>": 41756, "gug": 31358, "bucket</w>": 10498, "asu": 13157, "tahit": 45385, "administration</w>": 9502, "cassandra</w>": 35289, "tain</w>": 1908, "milky</w>": 21120, "sorts</w>": 12577, "replace</w>": 9466, "ðŁĺĪðŁĺĪ</w>": 44473, "folklore": 22133, "gry</w>": 5364, "..!!</w>": 23707, "icki</w>": 35468, "bright": 10383, "endu": 26032, "nuit</w>": 38815, "bunnies</w>": 28998, "psy": 3576, "molo": 41510, "kindle": 24704, "armoured</w>": 42514, "county</w>": 2116, "!": 0, "finish</w>": 3958, "refill</w>": 37859, "averaged</w>": 37310, "scott": 7775, "criticalrole": 33606, "pbc</w>": 49191, "vanishing</w>": 48296, "turb": 18973, "sepul": 47360, "orum</w>": 42724, "exchanging</w>": 47760, "ivan</w>": 15689, "orchestral</w>": 40285, "Ñĥ": 39729, "nephew</w>": 11689, "graphs</w>": 24670, "rin</w>": 11739, "mccr": 41996, "sodium</w>": 29070, "clare</w>": 15927, "hepat": 23767, "arrangements</w>": 23792, "ats</w>": 1032, "playoffs</w>": 9548, "biased</w>": 22178, "got</w>": 1005, "ctf</w>": 35250, "orchi": 23696, "chit</w>": 45626, "ðŁĺĤðŁĺŃ</w>": 25802, "sureshpp": 41924, "neg": 5513, "phar": 5570, "does</w>": 1897, "temp</w>": 11097, "remind</w>": 9868, "mayday</w>": 29957, "milne</w>": 44590, "queenof": 44398, "nxt</w>": 17804, "volunte": 3556, "lark": 43164, "victor": 2423, "spoil</w>": 25600, "inter</w>": 10093, "bber</w>": 7933, "ðŁĳĨ</w>": 45194, "dakota</w>": 12358, "emi": 44327, "weer</w>": 32491, "ogun": 48970, "high": 1487, "ith</w>": 1757, "lance": 26025, "geronimo</w>": 45171, "sell": 10279, "zoom</w>": 13909, "grown</w>": 7120, "itali": 11644, "looking": 36898, "celebrations</w>": 10825, "ta": 648, "alumin": 14563, "maids</w>": 27305, "(ðŁĵ·:</w>": 34610, "guardiola</w>": 32100, "ente</w>": 9935, "powe": 36955, "sunken</w>": 43473, "percu": 41722, "lade</w>": 26447, "pathology</w>": 23290, "scrolls</w>": 38113, "cum": 20142, "trium": 21065, "ridic": 9624, "gonz": 10587, "fabrics</w>": 23159, "multicul": 28004, "requested</w>": 16199, "iu</w>": 15575, "nyt</w>": 12816, "flair</w>": 24938, "wrec": 20879, "ferreira</w>": 48686, "inevit": 45871, "dura": 28173, "lev</w>": 29950, "fi": 701, "andrei</w>": 42137, "therapper</w>": 49340, "parfait</w>": 46140, "disneyworld</w>": 28469, "tunein</w>": 16809, "gettable</w>": 15620, "scissors</w>": 30867, "Ã³n</w>": 13926, "ix": 13272, "map</w>": 3923, "mea</w>": 17711, "ancho": 26610, "uka</w>": 23294, "stp</w>": 30576, "ipads</w>": 35281, "remarkably</w>": 39087, "madhya</w>": 48302, "ritu": 13391, "diffic": 6140, "ãħĭãħĭãħĭãħĭ": 39362, "twick": 34326, "vara</w>": 47492, "chillin</w>": 10347, "boxers</w>": 31019, "picnic</w>": 12007, "jeky": 43893, "ddings</w>": 49106, "arians</w>": 19104, "hae</w>": 27193, "cyril</w>": 36028, "boxing</w>": 5554, "plein</w>": 43429, "âľĶ": 47200, "genevieve</w>": 46584, "pee</w>": 11196, "vols</w>": 20404, "inception</w>": 36653, "deliciously</w>": 39589, "transported</w>": 29089, "bertie</w>": 47182, "joye": 34052, "composition</w>": 17510, "requiring</w>": 33425, "lbj</w>": 45683, "rn</w>": 7666, "perman": 9018, "palais</w>": 35673, "mad": 2740, "lal": 12301, "lakeland</w>": 34306, "dec": 3063, "õ</w>": 433, "editions</w>": 21664, "rebellion</w>": 22170, "akhtar</w>": 45458, "eek</w>": 46591, "gely</w>": 14637, "engraved</w>": 29421, "feminism</w>": 18784, "poolside</w>": 35509, "ìĿ´</w>": 34746, "kazakhstan</w>": 26720, "jesse": 23112, "rey</w>": 4517, "inspired</w>": 3516, "incarcer": 26334, "percussion</w>": 23980, "dt</w>": 7427, "itz": 14544, "reviews</w>": 7227, "northbound</w>": 24228, "serpent": 37084, "garbage</w>": 13760, "leisure</w>": 15849, "lid</w>": 17678, "stale</w>": 42471, "wednesday": 9311, "î": 170, "pixelart</w>": 18516, "forsy": 29629, "loop</w>": 10408, "rho": 7637, "pour": 33112, "airforce</w>": 23511, "Ý</w>": 409, "events</w>": 3667, "signs</w>": 4659, "ìķ": 16071, "marti": 20577, "highway": 45344, "stfu</w>": 47000, "colorized</w>": 46730, "itted</w>": 24429, "trife": 48962, "busy</w>": 4354, "shops</w>": 6467, "sr": 3437, "caricature</w>": 38857, "policeman</w>": 37713, "kathy</w>": 18795, "brief</w>": 8954, "zag</w>": 29346, "supervisors</w>": 37958, "procrastin": 25586, "artist": 14326, "delines</w>": 13562, "basis</w>": 12278, "dc": 5074, "regul": 11847, "hours</w>": 2382, "tongue": 44820, "northkorea</w>": 38495, "rendered</w>": 23652, "beauti": 1154, "sable</w>": 19224, "glamour": 42876, "va": 4648, "requ": 10664, "ia</w>": 1073, "ðŁĵ°:</w>": 28952, "pente": 33165, "callister</w>": 49026, "pandor": 30250, "angames</w>": 43178, "sby": 26519, "vain</w>": 25538, "edgar</w>": 17914, "kensing": 21505, "chatur": 33839, "forwar": 34364, "chuk": 25878, "araj</w>": 45142, "henson</w>": 32935, "garter</w>": 48420, "oslo</w>": 20547, "convin": 12889, "flexing</w>": 48483, "flashes</w>": 31259, "beir": 20176, "tridge</w>": 18722, "yaya</w>": 37608, "$.</w>": 34682, "saline</w>": 46918, "swaps</w>": 49242, "climateaction</w>": 31622, "skir": 8919, "revolver</w>": 38747, "joachim</w>": 48979, "msu": 26763, "rucker</w>": 45402, "pip</w>": 30854, "representation</w>": 13520, "trey</w>": 16939, "marine</w>": 5746, "beagle</w>": 30044, "familia</w>": 25622, "pel": 4286, "weightlifting</w>": 36164, "defibrill": 47684, "nicol</w>": 48274, "fall": 6489, "agency</w>": 6270, "marys</w>": 40228, "enchanted</w>": 28258, "medallist</w>": 41472, "nure": 42480, "tho</w>": 5025, "yt": 36777, "griev": 36400, "arl</w>": 48542, "bringing</w>": 4777, "firefly</w>": 33997, "ll": 1657, "demonstrates</w>": 24806, "ðŁĻĤ": 32006, "reservoir</w>": 20574, "ðŁĺ©": 9051, "shotgun</w>": 21643, "nayanth": 38157, "blizz": 13075, "orth": 22584, "oy": 6638, "describe</w>": 10967, "-.</w>": 44040, "clearing</w>": 15481, "above": 35019, "petro": 8716, "tape": 18332, "accur": 6551, "sking": 46215, "saturday": 12537, "imagine</w>": 4826, "sponge": 22861, "snowboarding</w>": 32397, "weymouth</w>": 41433, "¼</w>": 376, "seize</w>": 26624, "bigh": 18106, "jang</w>": 22074, "advertisers</w>": 45472, "mastermind</w>": 34029, "osteo": 43163, "kis</w>": 22796, "desktop</w>": 14345, "ong": 2787, "soph</w>": 34963, "participate</w>": 9433, "cnews</w>": 24319, "composing</w>": 40412, "fr</w>": 5512, "headphones</w>": 14906, "identification</w>": 23337, "guang": 27019, "dental</w>": 8382, "nold</w>": 40322, "mall": 10984, "lanterns</w>": 33676, "pos</w>": 11839, "burned</w>": 15022, "madi": 6527, "ended</w>": 2622, "interiors</w>": 14836, "bury": 12276, "sties</w>": 16428, "tcot</w>": 8995, "anglo": 39515, "chuck</w>": 9894, "usa</w>": 2547, "Ðº": 27152, "hfx": 47297, "skool</w>": 26743, "whitley</w>": 40564, "goofy</w>": 26879, "border": 16304, "ìĸ": 31625, "wolve": 45101, "cnn</w>": 8259, "ophobic</w>": 29934, "rump</w>": 29366, "icide</w>": 6558, "appointments</w>": 23439, "arduino</w>": 25398, "richar": 9350, "duncan</w>": 13502, "spd</w>": 28307, "aled</w>": 4970, "creating</w>": 5524, "investigator</w>": 30528, "derry</w>": 20535, "swan": 8215, "lista</w>": 37812, "lebu": 47030, "fluff</w>": 31174, "sbi</w>": 41369, "ironing</w>": 46655, "forth": 17068, "giro</w>": 26454, "ï¸ı</w>": 1001, "aaaaaaaa": 23126, "nationalparks</w>": 41204, "param": 12250, "kea</w>": 47926, "piccad": 33876, "sardin": 27383, "scavenger</w>": 36778, "bremen</w>": 39861, "turmeric</w>": 34044, "bed": 4152, "marco": 24719, "retar": 29964, "xiv</w>": 16125, "newcastle</w>": 9302, "duper</w>": 44850, "ural</w>": 33948, "ðŁİīðŁİĪ</w>": 34008, "bucs</w>": 20011, "edin": 6524, "judaism</w>": 42217, "newyorker</w>": 39732, "grant</w>": 5442, "villages</w>": 17621, "thex": 35990, "ðŁĮİ</w>": 16969, "Ïī</w>": 38065, "mating</w>": 34346, "tulip</w>": 28389, "manuscripts</w>": 40765, "faith</w>": 5080, "pied": 24686, "blat": 22048, "mavericks</w>": 30092, "flying": 20782, "atlas</w>": 15775, "luminous</w>": 37913, "alger": 18568, "oriented</w>": 24596, "debun": 33123, "jamming</w>": 25862, "nott": 9333, "luxu": 16112, "nbc": 9352, "muses</w>": 48243, "ornament</w>": 23409, "estrada</w>": 48116, "espresso</w>": 17098, "coy": 12765, "corpus</w>": 31672, "feud</w>": 27365, "believ": 4972, "directory</w>": 25272, "slou": 48493, "belo": 8379, "mister</w>": 18895, "plato</w>": 41101, "twickenham</w>": 39619, "backstreet": 46337, "neighbors</w>": 13037, "back": 1663, "wic": 7834, "fernando</w>": 17140, "prague</w>": 14940, "slan": 44663, "kenyans</w>": 36263, "listen</w>": 2672, "tradition": 20838, "tricks</w>": 13177, "influen": 13229, "ledge": 23647, "sporting</w>": 8944, "assistance</w>": 11685, "inaugurated</w>": 29011, "irrational</w>": 47413, "oyster</w>": 17253, "traveling</w>": 9365, "wage</w>": 10716, "ancient": 31495, "scorpions</w>": 45401, "ç¥": 26369, "perspectives</w>": 18777, "cantore</w>": 41769, "separation</w>": 22007, "ito</w>": 4661, "kendricklamar</w>": 47020, "tdsb</w>": 29836, "airwaves</w>": 43910, "ãģ¨ç¹ĭãģĮãĤĬãģŁãģĦ</w>": 48290, "pentagon</w>": 23133, "stig": 4088, "handful</w>": 23725, "weep</w>": 39270, "rash": 14917, "leman</w>": 24478, "ssr</w>": 39880, "amongst</w>": 12520, "insane</w>": 10260, "bop</w>": 19720, "inspections</w>": 39513, "ply": 17249, "gbc</w>": 42993, "leaving</w>": 5216, "ginger": 16287, "lennon</w>": 18360, "bobo</w>": 38939, "prima": 35611, "anga</w>": 11641, "everything": 36376, "templates</w>": 30498, "allianz</w>": 45740, "commercial</w>": 6287, "mersal</w>": 36711, "stering</w>": 14175, "homeswee": 46298, "rollers</w>": 36941, "ylde</w>": 42850, "transcription</w>": 48765, "richest</w>": 25572, "investigative</w>": 30233, "xen": 15568, "nae</w>": 19374, "eddi": 42930, "ndp</w>": 19257, "Ď": 202, "asians</w>": 36771, "oculus</w>": 30082, "loudly</w>": 39256, "troop</w>": 24054, "ayas</w>": 40904, "draft": 30624, "adver": 4806, "hani": 39944, "housemusic</w>": 28468, "slava</w>": 41797, "spills</w>": 35796, "espaÃ±a</w>": 41118, "ville": 11110, "avocados</w>": 48911, "reid": 45125, "clarify</w>": 37004, "ðŁ¦ħ</w>": 28800, "mckinnon</w>": 48736, "blackhistory</w>": 46982, "trum": 11766, "poe</w>": 19254, "clue</w>": 14994, "chilling</w>": 10179, "ip</w>": 8600, "oligar": 46185, "proclaimed</w>": 34489, "ðŁĩª</w>": 12331, "depart</w>": 30649, "oup</w>": 32815, "moti": 38210, "beatrice</w>": 36922, "turbine</w>": 26880, "lgb": 25401, "brother</w>": 3157, "haha": 1913, "poli</w>": 5414, "tms</w>": 44496, "construc": 13321, "mises</w>": 24390, "choic": 35606, "evolving</w>": 23675, "channel</w>": 3847, "figure": 48820, "fisher": 11175, "drew</w>": 5281, "ðŁĴĹðŁĴĹ": 47158, "shi": 823, "femi</w>": 38607, "snoo": 11352, "narrow": 24006, "exerc": 5932, "smithson": 25372, "morons</w>": 46477, "neet</w>": 46362, "ethel</w>": 45921, "closed</w>": 4552, "monitor</w>": 10198, "sank</w>": 43692, "blind</w>": 8351, "riveting</w>": 44024, "muscat</w>": 33322, "âľħ</w>": 5564, "bsu</w>": 46385, "ler": 5587, "nba</w>": 5139, "ðŁĺĤðŁĺĤðŁĺĤðŁĺĤ": 9936, "kingdom</w>": 7364, "esqu": 34616, "reve": 3115, "od</w>": 9719, "kidz</w>": 41938, "karak": 40372, "makerspace</w>": 42400, "wondering</w>": 8360, "musings</w>": 44961, "tnx</w>": 38220, "amreading</w>": 16546, "ðŁİ¶ðŁİ¶</w>": 36283, "kian": 43961, "pw": 19419, "jolla</w>": 46109, "recipe</w>": 4614, "megap": 33624, "duane</w>": 38946, "tread": 26182, "eze": 25993, "houston": 16564, "shelling</w>": 43166, "vember</w>": 3477, "torture</w>": 16013, "exhi": 3022, "gangs</w>": 29844, "gop</w>": 6250, "dap": 12149, "geocaching</w>": 47908, "fc": 4278, "inf</w>": 35241, "Ģï¸ı</w>": 5511, "pets</w>": 7663, "jean</w>": 6473, "ðŁĩ·": 16026, "warship</w>": 47846, "onic": 15838, "foodie</w>": 9847, "farmington</w>": 49305, "healy</w>": 34299, "figures</w>": 8739, "capturing</w>": 19548, "corps</w>": 11330, "fused</w>": 38994, "hackers</w>": 21498, "warmups</w>": 44094, "nabe": 35111, "magdal": 29673, "quake</w>": 8421, "âľ": 1508, "biop": 15009, "edmund</w>": 27567, "scenario</w>": 20456, "lai</w>": 23947, "pod": 3583, "modern</w>": 4077, "tans</w>": 27332, "austen</w>": 29885, "kor</w>": 24175, "moja": 49055, "shd</w>": 37729, "defic": 18022, "mell</w>": 41583, "sped</w>": 38813, "clave</w>": 24111, "ely</w>": 1273, "headshot</w>": 34890, "recovery</w>": 6591, "esper": 29216, "liken": 36084, "âŃĲâŃĲ": 32663, "jeddah</w>": 40982, "drooling</w>": 44360, "creek</w>": 5526, "edd</w>": 35431, "ðŁĵ±</w>": 20824, "riley</w>": 12260, "bey": 3234, "aero": 10196, "albany</w>": 17359, "encyclopedia</w>": 38376, "multic": 21683, "pew</w>": 30783, "freaking</w>": 11992, "ffs</w>": 4424, "punished</w>": 31598, "gonzales</w>": 31265, "lesson</w>": 7714, "sweethe": 16316, "ceremon": 15796, "zshq</w>": 41442, "sexy": 21019, "starters</w>": 22222, "beu": 38660, "homicide</w>": 21520, "emb": 3692, "thane</w>": 21463, "neer": 34245, "owe</w>": 19073, "instructional</w>": 31022, "yo": 586, "nerdy</w>": 33124, "zik</w>": 30125, "gad</w>": 44651, "overview</w>": 14789, "peabody</w>": 41244, "fatty</w>": 22953, "ðŁĴ¬</w>": 30947, "immer": 13954, "seung": 32393, "fenway</w>": 29206, "bal</w>": 2282, "fun</w>": 1499, "improve</w>": 4971, "ferguson</w>": 11904, "hant": 40641, "kilig</w>": 49172, "ipswich</w>": 24494, "alz</w>": 41128, "colleges</w>": 17357, "score</w>": 4431, "finalized</w>": 48930, "sati": 7038, "glazed</w>": 24122, "african</w>": 4736, "stanleycup</w>": 28662, "ìĨĮëħĦëĭ": 25887, "admini": 6434, "wes</w>": 14738, "classroom</w>": 9001, "target</w>": 5400, "yoona</w>": 32736, "severn</w>": 34626, "communist</w>": 18602, "metamor": 39030, "inee": 43252, "eventful</w>": 45628, "runchat</w>": 25838, "heath</w>": 11719, "marlin</w>": 34275, "balaji</w>": 48694, "mich</w>": 23029, "micro": 3160, "luckily</w>": 20100, "rumble</w>": 18900, "barstool": 44826, "scarcity</w>": 45812, "graduate</w>": 6675, "chica</w>": 44190, "legal": 17743, "attu</w>": 43173, "henley</w>": 27853, "perio": 5101, "mysteries</w>": 20605, "brushes</w>": 21550, "zara</w>": 24454, "ðŁĸ¤</w>": 10860, "versus</w>": 14548, "gilbert</w>": 14154, "uri": 11052, "wilt</w>": 47357, "bodied</w>": 36892, "azad</w>": 37838, "ally": 7461, "comparisons</w>": 40870, "pist": 15556, "telly</w>": 31475, "willem</w>": 38044, "kimono</w>": 40024, "buda": 18520, "dividing</w>": 45605, "tumour</w>": 45129, "elearning</w>": 29969, "bin</w>": 5346, "liqui": 33817, "Ń": 255, "squat</w>": 30680, "restored</w>": 14238, "bath</w>": 5713, "wink": 34455, "âĢĶâĢĶâĢĶâĢĶâĢĶâĢĶâĢĶâĢĶ": 34432, "âĸº</w>": 12086, "midwest</w>": 16627, "institution</w>": 18823, "oo</w>": 2822, "arsenal</w>": 6084, "retrospective</w>": 27105, "ebola</w>": 15864, "control</w>": 3366, "evoc": 43133, "aliz": 30979, "jud": 8363, "namo</w>": 24854, "veness</w>": 10516, "cold</w>": 3153, "processor</w>": 22838, "slays</w>": 45648, "storm</w>": 2819, "discoveries</w>": 29308, "confir": 3930, "deg</w>": 38498, "achers</w>": 25051, "cove": 21700, "à«": 48347, "booming</w>": 33487, "incarcerated</w>": 49178, "chattanoo": 28009, "cour": 1391, "tomat": 12041, "raq</w>": 43312, "pinn": 31448, "obi</w>": 18414, "sps</w>": 13869, "manor": 41830, "sheffield": 41763, "below</w>": 3788, "extravag": 22299, "~</w>": 349, "ð": 172, "ghost": 11417, "empower</w>": 17230, "avon</w>": 17348, "calyp": 29851, "csg</w>": 47085, "pott": 28698, "à®¾</w>": 32831, "cracking</w>": 13008, "nya</w>": 24165, "playo": 5804, "wwwww</w>": 48268, "appropriation</w>": 49110, "web</w>": 4601, "stadion</w>": 48815, "avent": 22700, "coastguard</w>": 40601, "scab": 31716, "attackers</w>": 47701, "son</w>": 825, "cell": 9316, "davy</w>": 41565, "mmmm</w>": 13180, "dv": 4288, "guitars</w>": 15023, "execu": 4360, "icky</w>": 11587, "mi": 714, "fertilizer</w>": 36786, "babys": 22266, "greeng": 42077, "stas</w>": 19866, "roxy</w>": 28093, "chainz</w>": 39687, "sabrina</w>": 24994, "ids</w>": 6111, "counseling</w>": 25000, "staffs</w>": 36098, "heal</w>": 13833, "lau": 1853, "relat": 27192, "iac": 32838, "wks</w>": 25508, "grom</w>": 45284, "lures</w>": 46747, "ðŁĳį</w>": 4201, "variation</w>": 26420, "lovehim</w>": 45733, "airways</w>": 14299, "walls</w>": 8258, "falcons</w>": 13834, "enchil": 47396, "bluebird</w>": 40747, "hhhh</w>": 13121, "bail</w>": 16986, "meteor": 26429, "taylorswift</w>": 18936, "woodley</w>": 40566, "synthesis</w>": 21602, "tahoe</w>": 26140, "mock": 15641, "female</w>": 3970, "happyholidays</w>": 32186, "brother": 12697, "cliffe</w>": 15170, "adani</w>": 37499, "grove</w>": 7463, "sig</w>": 19145, "boomers</w>": 37988, "ðŁĴķ": 5412, "keyboards</w>": 49237, "paler": 38028, "els</w>": 1645, "value</w>": 4602, "empire</w>": 7614, "vauxhall</w>": 29173, "yolanda</w>": 43845, "lays</w>": 19546, "ib": 3962, "ðŁĩ¯": 20090, "niag": 18071, "oth": 33262, "stravel</w>": 43494, "body</w>": 1774, "ars</w>": 864, "upton</w>": 31910, "sanderson</w>": 36198, "coast": 6398, "habs</w>": 27489, "pos": 1780, "kans</w>": 34012, "msc": 31826, "meanings</w>": 45814, ".ðŁĺĤ</w>": 46580, "ations</w>": 986, "blanche</w>": 34875, "thec": 48659, ",@</w>": 13975, "ging</w>": 3905, "ropes</w>": 30506, "dsm</w>": 39502, "muck": 44731, "infra": 7312, "reiter": 35394, "electronics</w>": 13081, "jet": 11515, "urging</w>": 27748, "pher": 9194, "overload</w>": 24327, "poem</w>": 9436, "correlation</w>": 29218, "tener</w>": 29054, "cambridgeshire</w>": 46139, "mcin": 18770, "cultivate</w>": 42983, "shortest</w>": 33717, "plc</w>": 16827, "à¸Ńà¸": 14649, "entennial</w>": 43088, "acm</w>": 39317, "croy": 21676, "dunkirk</w>": 46928, "ness</w>": 1294, "saved</w>": 7137, "kudos</w>": 14481, "contag": 29259, "kindness": 45112, "'âĢ¦</w>": 42120, "asa</w>": 11914, "jasmin": 42989, "inevitable</w>": 25004, "gwyne": 36923, "sth</w>": 34004, "sma</w>": 11854, "hain</w>": 23861, "zur": 17128, "blasio</w>": 35553, "pistachio</w>": 36320, "sonny</w>": 20880, "hei": 6101, "brutal</w>": 14556, "skip": 39793, "beech</w>": 27596, "expectations</w>": 12529, "ðŁĮĮ</w>": 43393, "masterpieces</w>": 37596, "lac</w>": 16189, "explored</w>": 25016, "turf</w>": 12510, "millionaires</w>": 47159, "vens</w>": 20884, "thickness</w>": 40754, "midwives</w>": 42355, "ission</w>": 37946, "chelmsford</w>": 39890, "route</w>": 5261, "newtown</w>": 31747, "macher</w>": 29330, "bubble": 28687, "terrifying</w>": 18526, "gcc</w>": 26804, "thome</w>": 21289, "matology</w>": 27940, "pire": 16613, "jeffrey</w>": 16027, "antebellum</w>": 41683, "nay</w>": 16182, "distribu": 6138, "folk</w>": 6032, "journey</w>": 3749, "qr</w>": 18193, "irish</w>": 4889, "becker</w>": 26918, "innovator</w>": 34735, "kane</w>": 9765, "sick": 11143, "cowards</w>": 48972, "tube": 38229, "oppo": 7399, "approxim": 14201, "lair</w>": 31981, "jeet": 45542, "ambush</w>": 40725, "quests</w>": 44611, "elementary</w>": 8143, "yuk</w>": 24063, "webin": 8460, "started</w>": 2760, "asph": 28019, "hibition</w>": 24658, "rare</w>": 3865, "caes": 15740, "etienne</w>": 46118, "excellence</w>": 8171, "otters</w>": 38883, "slist</w>": 33749, "jacqu": 14495, "rae": 21646, "pixels</w>": 34099, "gdc</w>": 32793, "siena</w>": 33336, "maa": 42774, "sok</w>": 43456, "dynamite</w>": 29003, "booth": 47895, "hood": 18681, "lds</w>": 31235, "lich": 23979, "budget</w>": 5639, "engra": 17560, "cupcakes</w>": 12747, "davis": 24426, "episcop": 28037, "ote</w>": 19744, "ðŁ¤©": 27351, "wyn</w>": 17504, "greeting</w>": 17754, "sing": 1387, "casm</w>": 35198, "ethi": 10327, "leonard": 43849, "eto": 27829, "ham": 1522, "vette</w>": 17045, "cosmic": 47398, "ring</w>": 2540, "releases</w>": 7393, "stgeorge": 43698, "council": 18187, "moh</w>": 35388, "sandeep</w>": 46973, "smol</w>": 40403, "cookbook</w>": 21086, "ale</w>": 1336, "bick": 27238, "bao</w>": 20408, "allah</w>": 6378, "affection": 33780, "enforcement</w>": 12460, "beverage</w>": 18694, "À": 124, "persistent</w>": 29028, "edward</w>": 7450, "sachin": 47527, "mali": 6701, "novo</w>": 36581, "vanuatu</w>": 48766, "bride</w>": 8964, "drifting</w>": 30276, "tatted</w>": 41605, "madi</w>": 27282, "scienti": 4338, "riley": 35056, "archi": 4479, "naver</w>": 32534, "authent": 18158, "istandwith": 33820, "wack</w>": 38270, ")/</w>": 26616, "deejay</w>": 44511, "factor": 21082, "truro</w>": 43507, "dodgeball</w>": 43244, "beauty</w>": 2488, "rout": 7502, "lolli": 27906, "wednesdaywisdom</w>": 11445, "inn": 27260, "platin": 10267, "pumpkins</w>": 23787, "potter</w>": 9026, "ming": 10868, "him": 4128, "tw</w>": 12842, "connec": 29933, "kor": 6428, "delayed</w>": 14567, "seattle": 24388, "shol": 21472, "maidstone</w>": 44395, "kumar</w>": 7674, "rubio</w>": 24244, "swagger</w>": 35797, "ðŁĩ": 1173, "colosse": 48142, "laboratory</w>": 17664, "comfortable</w>": 8652, "tortoise</w>": 30178, "should</w>": 1535, "rilla</w>": 18685, "redbubble</w>": 46137, "ketch</w>": 35371, "mand</w>": 27244, "mow</w>": 36329, "teammate</w>": 17900, "mcu</w>": 30403, "tallinn</w>": 45079, "gree</w>": 30774, "uji</w>": 39672, "unsplash</w>": 46196, "vee</w>": 17073, "ranch": 43955, "crushes</w>": 35844, "taster</w>": 29743, "clothing</w>": 7425, "heidi": 44860, "saha": 36062, "gene": 5822, "cub": 16938, "incidents</w>": 22120, "nox</w>": 27406, "pump</w>": 9173, "wound</w>": 19231, "benefit</w>": 6399, "mrt</w>": 30256, "james": 6963, "unfair</w>": 22193, "testament</w>": 24609, "bbcradio</w>": 22876, "tapping</w>": 27882, "yyyyyy</w>": 47055, "entr": 7129, "peake</w>": 24810, "causeway</w>": 35034, "enburg</w>": 28430, "tastic</w>": 21337, "utrecht</w>": 37216, "spride</w>": 26685, "prog</w>": 22219, "fundamentals</w>": 27887, "unt</w>": 6537, "eller": 20927, "beavers</w>": 34513, "quits</w>": 32505, "sburgh</w>": 48205, "catherine": 35035, "neighbourhood</w>": 20312, "fairytale</w>": 28944, "exhibitions</w>": 28311, "fork</w>": 13700, "carried</w>": 12960, "mclaughlin</w>": 35346, "years": 30864, "chasers</w>": 34158, "singer": 33880, "ides</w>": 31791, "heimer</w>": 39517, "coeur</w>": 44986, "gyllen": 49348, "crani": 45674, "ðŁĺ«": 25141, "apartments</w>": 15791, "northumberland</w>": 22922, "thunt</w>": 46763, "hor": 1407, "lasting</w>": 13434, "emoji</w>": 16327, "raw": 10166, "bridges</w>": 11811, "invest</w>": 9716, "doses</w>": 37873, "forward</w>": 2342, "metabol": 48389, "upside</w>": 15362, "signup</w>": 40791, "heartless</w>": 47022, "gives</w>": 3926, "gemma</w>": 23952, "bigger</w>": 6806, "khand</w>": 31110, "jews</w>": 14200, "kejri": 16617, "ssn</w>": 39116, "peris": 19461, "saloon</w>": 26038, "ira</w>": 5371, "obo</w>": 26618, "lyme</w>": 31167, "formulae</w>": 34586, "psychologist</w>": 32827, "ning</w>": 762, "koko": 42426, "latepost</w>": 48328, "comrade</w>": 30844, "anal": 2785, "ized</w>": 7690, "panhandle</w>": 40919, "twice</w>": 6970, "qu</w>": 28646, "hur": 2305, "umatic</w>": 45006, "shifts</w>": 23957, "manu": 3404, "organisms</w>": 37041, "arianagrande</w>": 23321, "rm</w>": 8431, "bravo</w>": 13006, "hotter</w>": 23591, "pvc</w>": 26959, "andri": 37208, "bil</w>": 20506, "dod": 13847, "help": 8641, "sont</w>": 31063, "xj</w>": 42453, "Č": 200, "descri": 4637, "tri</w>": 9618, "squares</w>": 26972, "lad": 15991, "kellie</w>": 49224, "baugh</w>": 41301, "undering</w>": 30826, "primo</w>": 43215, "geeky</w>": 47332, "kers</w>": 2880, "tribun": 14311, "rampage</w>": 32077, "opend": 28069, "wod</w>": 41522, "icker</w>": 40357, "pesos</w>": 47872, "rule</w>": 6175, "ï¸İ</w>": 24029, "humb": 9988, "prevent": 26436, "seville</w>": 34988, "cooled</w>": 37170, "cid</w>": 27359, "ðŁĲĬ</w>": 43974, "meeting": 48566, "inventions</w>": 44914, "yemen": 29276, "extent</w>": 24913, "bob</w>": 4423, "zu</w>": 14184, "kawasaki</w>": 28227, "nk": 22708, "colla": 2929, "usav": 36056, "ðŁĶ·</w>": 37740, "sandi": 44249, "threw</w>": 12746, "hold": 36496, "ðŁĴĥ": 9947, "obey</w>": 26926, "chools</w>": 41958, "prab": 17901, "sergeant</w>": 22049, "bha</w>": 33068, "mari": 2603, "blues": 17566, "max</w>": 3902, "clans</w>": 38279, "updating</w>": 22792, "ethical": 47041, "auditorium</w>": 15063, "mistre": 42039, "spicy</w>": 10915, "versions</w>": 16190, "nomination</w>": 14136, "pares</w>": 12420, "edm</w>": 13539, "mog</w>": 42362, "rat</w>": 8985, "thom": 2585, "materials</w>": 8161, "dhaka</w>": 32877, "bridging</w>": 38109, "nhlbruins</w>": 39081, "clams</w>": 38849, "villa</w>": 7754, "scallo": 19936, "last</w>": 952, "popo": 38835, "mill": 4221, "speak</w>": 4208, "mona</w>": 19143, "ghyun</w>": 25010, "murdoch</w>": 29037, "panther</w>": 13262, "acus</w>": 33710, "leafs</w>": 16688, "utility</w>": 14941, "agazine</w>": 44942, "locals</w>": 15041, "dock</w>": 8997, "watchin</w>": 32432, "homeless": 18403, "knu": 14812, "androidgames</w>": 46572, "brews</w>": 21663, "bai</w>": 23339, "deejay": 48304, "announcing</w>": 11593, "aggressively</w>": 48667, "ever": 888, "graff": 10656, "deutsche</w>": 32760, "category</w>": 9432, "à¸£": 32225, "buda</w>": 49012, "dapp": 46857, "newsnow</w>": 48650, "rud": 35256, "merci</w>": 29378, "@___</w>": 48308, "walk</w>": 2374, "pse</w>": 5423, "tney</w>": 9523, "ðŁĳ½</w>": 26257, "nau</w>": 32878, "arguably</w>": 30899, "kelly</w>": 5220, "behaved</w>": 41617, "surrendered</w>": 44601, "gross</w>": 11541, "________________": 20115, "adc</w>": 38201, "saskat": 17102, "counselor</w>": 26148, "picked</w>": 6018, "rascal</w>": 43481, "dynamo</w>": 28281, "rudol": 40927, "retention</w>": 26247, "gradable</w>": 41529, "ãĥĥ": 28902, "victoria</w>": 6127, "fps</w>": 25300, "reeves</w>": 23060, "worthit</w>": 40830, "ðŁĮį</w>": 18641, "âĿ¤ï¸ıâĿ¤ï¸ıâĿ¤ï¸ıâĿ¤ï¸ı</w>": 29880, "sei": 13130, "directing</w>": 21817, "mucho</w>": 19864, "faisal</w>": 35459, "philadelphia</w>": 9749, "rimo</w>": 47817, "teens</w>": 12375, "jamie</w>": 8078, "rem": 15098, "tease</w>": 25163, "exoplan": 37980, "located</w>": 5677, "homeland</w>": 21633, "wac</w>": 37947, "bacca</w>": 40708, "cigarettes</w>": 22750, "china": 38943, "dfs</w>": 32880, "amount</w>": 6403, "satell": 9031, "benchmark</w>": 31775, "lynne</w>": 26900, "microbiome</w>": 35148, "csr": 32105, "ence": 6495, "campos</w>": 48077, "cai": 38971, "gaf</w>": 32670, "shirt</w>": 2523, "btv</w>": 38541, "plate</w>": 5135, "gabri": 8311, "nephews</w>": 43747, "akan": 43678, "efs</w>": 7389, "sava</w>": 40198, "stimulate</w>": 42380, "agony</w>": 36977, "mais</w>": 28153, "vs": 11385, "regina</w>": 16841, "moda</w>": 25814, "streaks</w>": 42092, "messe</w>": 40391, "gyn</w>": 39603, "mwf</w>": 48565, "coping</w>": 30545, "bra": 1195, "atwood</w>": 45680, "paths</w>": 16333, "ubc</w>": 29455, "equip</w>": 36979, "tur</w>": 17182, "allan": 36552, "hmv</w>": 49288, "apic": 40679, "meadow": 25213, "atheists</w>": 47155, "childcare</w>": 31133, "santi": 13856, "illa": 8877, "bex</w>": 24748, "northeasthour</w>": 42869, "eindhoven</w>": 47172, "avoi": 16797, "aid</w>": 5182, "gie": 11459, "shraddha": 35208, "raine": 49038, "zac</w>": 19159, "directive</w>": 40630, "railway</w>": 7856, "cap</w>": 3938, "veto</w>": 36570, "edward": 26184, "elding</w>": 28223, "skier</w>": 42585, "ameter</w>": 23393, "crc</w>": 25618, "mfc</w>": 39474, "ural": 23547, "dess</w>": 10001, "odisha</w>": 15737, "pric": 24275, "kylo</w>": 47704, "alwx</w>": 32768, "haynes</w>": 30496, "recl": 42277, "holocau": 14688, "families</w>": 4612, "panel</w>": 3724, "crude</w>": 20677, "trax</w>": 34421, "ðŁĳĩðŁĳĩ": 17915, "untouch": 44509, "ddle": 17633, "initiative</w>": 8152, "doha</w>": 20908, "ara</w>": 3340, "implement</w>": 17966, "leche</w>": 46197, "lopes</w>": 49269, "wson</w>": 33954, "interviewed</w>": 11688, "loyment</w>": 18307, "younger</w>": 10414, "pate": 42122, "springbreak</w>": 37753, "transporting</w>": 42259, "lah</w>": 4299, "brisket</w>": 31920, "fdny</w>": 41084, "dragons</w>": 10203, "dvn</w>": 29811, "germs</w>": 47731, "catch</w>": 3042, "dre": 960, "sask</w>": 30416, "virgin": 5651, "lyndon</w>": 48518, "altogether</w>": 45689, "ssc</w>": 20364, "mondo</w>": 36207, "irwin</w>": 23750, "brand</w>": 2896, "bash": 20462, "denis": 47630, "standby</w>": 36184, "down": 1833, "drizzle</w>": 28240, "ern": 6992, "ethere": 18705, "agm</w>": 19162, "tyour": 16823, "convention</w>": 6752, "pokÃ©mon</w>": 22066, "iaf</w>": 40789, "kathryn</w>": 19999, "recite</w>": 48824, "zurich</w>": 21288, "leftist</w>": 35143, "concerning</w>": 21772, "rattle</w>": 41839, "jaitley</w>": 32776, "sterone</w>": 39418, "¯</w>": 363, "consol": 27869, "mississippi</w>": 12232, "à¯ģ</w>": 33115, "ðŁĴ¤": 34706, "christie</w>": 16084, "justice": 16904, "manit": 15693, "customers</w>": 5528, "skateboard</w>": 31777, "tomas": 35944, "aston</w>": 13879, "flawless</w>": 15531, "sunny": 15632, "silhouette</w>": 26149, "europe</w>": 3848, "ken</w>": 1702, "clemson</w>": 19537, "nan": 4375, "houston</w>": 5663, "gini</w>": 35768, "mediocre</w>": 41170, "immortal</w>": 24717, "terrestrial</w>": 46299, "ðŁĴŁ": 49394, "industries</w>": 11700, "reduced</w>": 10821, "alon": 14097, "°</w>": 364, "hace</w>": 43623, "flowering</w>": 19953, "lionel</w>": 19441, "smma</w>": 42370, "garmin</w>": 39885, "erz</w>": 38711, "funko</w>": 23697, "oceans</w>": 16792, "hartford</w>": 23434, "felix": 33455, "clicks</w>": 31250, "ale": 1440, "poe": 4746, "medicines</w>": 26541, "<|endoftext|>": 49407, "bury</w>": 3899, "chen</w>": 8983, "nys</w>": 23423, "simplify</w>": 35479, "direct</w>": 6016, "santana</w>": 27033, "saturdaymorning</w>": 29053, "redesign</w>": 24188, "upbeat</w>": 39201, "roblo": 27481, "simply</w>": 6151, "ancestor</w>": 43904, "runaway</w>": 28851, "adapt</w>": 22666, "Û": 151, "scrapped</w>": 43325, "stier</w>": 42069, "blogg": 33282, "cor</w>": 18559, "removing</w>": 18504, "ðŁİĵ": 28916, "¢</w>": 351, "ggled</w>": 46328, "icc</w>": 12945, "eda</w>": 10804, "natur": 6800, "alig": 21272, "relax</w>": 9035, "ðŁĴĶ": 18880, "carrot</w>": 15435, "effect</w>": 5436, "-$</w>": 24946, "call</w>": 1620, "ulty</w>": 8036, "portraits</w>": 14203, "bius</w>": 45525, "underwear</w>": 21154, "taining</w>": 7565, "canne": 44252, "myjaps</w>": 47939, "vy</w>": 5157, "heaps</w>": 44446, "chero": 19844, "lena</w>": 22038, "supple": 31431, "rear": 39652, "booklet</w>": 27405, "downed</w>": 35814, "narco": 38461, "ladybird</w>": 43389, "interchange</w>": 34222, "daydream</w>": 41587, "cannabis</w>": 8861, "holes</w>": 11266, "coach": 3275, "gb": 8727, "comm</w>": 11413, "wknd</w>": 20851, "slum</w>": 46754, "dungeons</w>": 42572, "oura": 29806, "delivered</w>": 7278, "syrian</w>": 10041, "canning</w>": 38621, "uff</w>": 45701, "amoto</w>": 25492, "majesty</w>": 21188, "ders": 37307, "hierarchy</w>": 44442, "coop</w>": 18910, "buckley</w>": 25905, "ripping</w>": 29126, "force": 12068, "uran</w>": 16197, "simpson": 41805, "lambo</w>": 45464, "exe</w>": 48027, "harleydavidson</w>": 39183, "donet": 33724, "casted</w>": 33838, "interim</w>": 19509, "run</w>": 1934, "lero": 15067, "unification</w>": 45036, "distor": 23781, "consecu": 12084, "peyton</w>": 20307, "zeiss</w>": 47460, "acdc</w>": 45067, "().</w>": 41737, "house</w>": 1212, "pom</w>": 24280, "color</w>": 3140, "seminars</w>": 34870, "pediatric": 48431, "scrum</w>": 29047, "better</w>": 1539, "acom</w>": 22342, "gan": 1822, "starter</w>": 7800, "alization</w>": 8026, "melanch": 44818, "capital</w>": 5439, "moo": 4953, "fermented</w>": 36886, "tk</w>": 20676, "german</w>": 4710, "sahi": 24608, "melville</w>": 46030, "scenery</w>": 16025, "ðŁĶ´âļªï¸ı": 46879, "crackers</w>": 26200, "fiore</w>": 44997, "gani</w>": 48324, "druid</w>": 40297, "paren": 3106, "hsv</w>": 47311, "michael": 6051, "glaciers</w>": 42528, "aubrey</w>": 34110, "âĢİ</w>": 31001, "percent": 16328, "congregation</w>": 32618, "unstopp": 22105, "nab": 6951, "fein": 46707, "momsdemand</w>": 33744, "cinco</w>": 25131, "greta</w>": 33443, "bambam</w>": 34538, "seminar</w>": 7269, "hon": 1279, "sautÃ©ed</w>": 38517, "scandals</w>": 45490, "bernard</w>": 14579, "Ĝ</w>": 472, "lest": 24372, "ifc</w>": 36524, "hoot</w>": 29164, "apprais": 36972, "ðŁįģ": 29837, "backpack</w>": 14894, "incar": 18070, "atmospheric</w>": 24223, "sweetest</w>": 15180, "fla": 1577, "dwp</w>": 46976, "scenter</w>": 23059, "sui</w>": 24972, "inder</w>": 29225, "elis</w>": 48021, "antioxidants</w>": 34208, "dreamers</w>": 27194, "blue": 3829, "catalo": 34740, "accepting</w>": 12855, "attacked</w>": 12366, "naked": 46371, "cheeky</w>": 15068, "humanright": 44385, "shahi</w>": 46972, "etf</w>": 31661, "recover</w>": 16785, "drwho</w>": 48342, "lovel": 8999, "farmhouse</w>": 26293, "pushes</w>": 23828, "incoming</w>": 15416, "ination</w>": 4706, "pelle": 31267, "emir": 13337, "stuart</w>": 11723, "de</w>": 654, "soundcloud</w>": 15190, "internal</w>": 11285, "portman</w>": 34755, "tackled</w>": 47218, "intestinal</w>": 38896, "lh": 27794, "henry": 16018, "in": 512, "scientology</w>": 44694, "listing</w>": 8145, "variant</w>": 20293, "mmorpg</w>": 39476, "agram</w>": 2447, "liss": 45489, "itious</w>": 13329, "rend</w>": 22851, "lettuce</w>": 18573, "nestled</w>": 38107, "syour": 21718, "lace": 30012, "killer": 28230, "neutron</w>": 44056, "felicity</w>": 35123, "super</w>": 1994, "mok": 49146, "'d</w>": 1896, "rebs</w>": 28164, "sur</w>": 7123, "stix</w>": 48829, "abhin": 44045, "tuk</w>": 14993, "imagery</w>": 22828, "british</w>": 3504, "commen": 15795, "note": 10910, "mercury</w>": 12653, "refriger": 21076, "ral</w>": 1406, "belts</w>": 21888, "phils</w>": 38573, "whales</w>": 17722, "bacterial</w>": 26101, "bandai</w>": 42054, "rockabilly</w>": 45019, "rid</w>": 9874, "investigate</w>": 15703, "having</w>": 1977, "savannah</w>": 18662, "shima</w>": 14382, "miami": 15106, "kwan": 37100, "cognition</w>": 46825, "sister</w>": 3677, "chrome</w>": 9529, "logg</w>": 43002, "privati": 27379, "sanfrancisco</w>": 20254, "approves</w>": 18107, "klan</w>": 46935, "gal</w>": 4488, "kensington</w>": 24988, "cairo</w>": 19615, "à¸·</w>": 47991, "magnum</w>": 23496, "italy</w>": 4052, "jou</w>": 32029, "firmware</w>": 42691, "##</w>": 15483, "ìĬ¤": 20305, "sie": 8533, "woolf</w>": 43728, "syfy</w>": 32047, "erc</w>": 32382, "vpn</w>": 38212, "fcofficial</w>": 27805, "sachin</w>": 30297, "simulated</w>": 46395, "rad": 4473, "barber": 19517, "touching</w>": 14088, "poultry</w>": 31005, "supplychain</w>": 31224, "happydays</w>": 25106, "selective</w>": 28686, "jaya</w>": 21960, "neu</w>": 43342, "ampli": 15647, "coats</w>": 18075, "selfie</w>": 3666, "âļ«ï¸ı": 26529, "rochester</w>": 18057, "quoted</w>": 27706, "ü": 184, "asher</w>": 37585, "climbing</w>": 9877, "marseille</w>": 30365, "bois": 47742, "reel</w>": 17166, "ija</w>": 42802, "ush": 12001, "crop": 40751, "hearth": 31563, "sarde": 43925, "freddy</w>": 24394, "onna": 25438, "gc</w>": 6043, "affair</w>": 13998, "fairfax</w>": 29368, "siblings</w>": 17156, "louis</w>": 4459, "rarest</w>": 43237, "stx</w>": 42548, "mentality</w>": 26647, "militi": 46625, "porter": 28319, "patrons</w>": 28308, "wtc</w>": 39718, "riya</w>": 36908, "ó</w>": 431, "pending</w>": 12770, "fallout</w>": 16009, "nomin": 5643, "rir</w>": 36792, "welcom": 11578, "shara</w>": 48849, "textbooks</w>": 44041, "refuge": 5638, "surfer</w>": 24925, "buick</w>": 22000, "avar": 33423, "grati": 36402, "resc": 3956, "enslaved</w>": 48675, "try": 4487, "destroys</w>": 27634, "horizontal</w>": 25775, ".-</w>": 12481, "scopy</w>": 20018, "sheri": 9235, "join": 14737, "conj": 41543, "wrestle": 17097, "surgeons</w>": 26000, "ðŁĺĿ</w>": 12970, "wesome</w>": 33292, "existential</w>": 38752, "sheeran</w>": 18561, "micro</w>": 11374, "hvac</w>": 27492, "aamaadmiparty</w>": 46406, "arrivals</w>": 19583, "icans</w>": 20511, "lough</w>": 28045, "liz": 8632, "baham": 43718, "tros</w>": 40456, "vouchers</w>": 23384, "coupled</w>": 37153, "nostal": 12076, "evil": 23218, "disappears</w>": 44406, "khi</w>": 42925, "republicans</w>": 12384, "crete</w>": 8584, "sinfo</w>": 47178, "love": 2618, "league": 16635, "extract</w>": 18962, "prom</w>": 7944, "footh": 25951, "singul": 34003, "friday": 6350, "prisons</w>": 26607, "mines</w>": 16211, "cnbc</w>": 24371, "austrian</w>": 20638, "mckinsey</w>": 48143, "wharton</w>": 43320, "sof</w>": 41187, "fsu": 44185, "chargeable</w>": 35664, "winnings</w>": 46490, "ðŁĺ¬</w>": 14549, "anco</w>": 15459, "campaigner</w>": 46364, "uan</w>": 33062, "cries</w>": 19769, "vincent</w>": 10357, "foreign": 42255, "none</w>": 8906, "attracts</w>": 31024, "operate</w>": 19306, "isabelle</w>": 31072, "schen": 22738, "ì§Ħ</w>": 38890, "nation</w>": 2670, "wells": 42705, "punc": 43907, "egos</w>": 43992, "dike</w>": 42683, "roy": 2128, "lucha</w>": 38449, "pear": 4910, "granny</w>": 22710, "akira</w>": 34001, "gatwick</w>": 37122, "ear": 1055, "garri": 21764, "tas": 6538, "clan</w>": 14114, "reykja": 47571, "âĦ": 8604, "naf</w>": 45956, "mario</w>": 7600, "ridden</w>": 32025, "op": 676, "gge</w>": 31659, "alin</w>": 40063, "capped</w>": 24659, "answering</w>": 18280, "wsj</w>": 19764, "traders</w>": 19112, "lopez</w>": 12982, "spokesperson</w>": 26234, "merce": 8409, "sundaywith": 26469, "wawx</w>": 47387, "panelists</w>": 24619, "kar": 1813, "gos</w>": 5693, "snacking</w>": 46474, "cantina</w>": 47472, "fanclub</w>": 31530, "rands</w>": 39153, "aphra": 44147, "semicon": 34315, "eil": 29457, "revised</w>": 22806, "yotpo</w>": 26113, "geek</w>": 7135, "unfit</w>": 45367, "heather": 20230, "mnl</w>": 32980, "prior": 20328, "samar": 21820, "royo</w>": 39357, "peeling</w>": 48649, "gail": 41160, "tamar": 22901, "tyrone</w>": 30226, "beginning</w>": 5791, "propri": 28243, "saad</w>": 36530, "cashew</w>": 39531, "dodgy</w>": 37727, "thermo": 22303, "bhutto</w>": 30153, "lorraine</w>": 27602, "avail": 1651, "papa</w>": 12211, "muss": 41493, "stream": 8659, "bez</w>": 46764, "sker": 37640, "boro</w>": 7974, "length</w>": 10130, "julie</w>": 10505, "lynn": 25303, "topics</w>": 11916, "kov": 17733, "keeping": 38371, "chey</w>": 31208, "alpha": 11807, "%.</w>": 12475, "database</w>": 14678, "cook": 9726, "couples</w>": 14752, "chief</w>": 3455, "checkers</w>": 48181, "schiz": 33230, "tione": 44318, "mc": 1278, "..\"</w>": 15229, "tq</w>": 43066, "carroll</w>": 14893, "vaul": 27469, "bolts</w>": 26028, "snail</w>": 23132, "gote</w>": 49345, "rio</w>": 5782, "counterfeit</w>": 44242, "robin": 6681, "ys</w>": 961, "hume</w>": 38197, "describes</w>": 13678, "mk</w>": 8937, "cbp</w>": 46723, "oz": 10584, "cassini</w>": 46554, "syd</w>": 22504, "distri": 5987, "pasco</w>": 49220, "haar": 45247, "hotline</w>": 30516, "fw": 23934, "ðŁıĥ": 16820, "kilt</w>": 49319, "leader</w>": 3236, "videos</w>": 6081, "skysports</w>": 46725, "digi</w>": 39361, "from": 8330, "ðŁĳł</w>": 41264, "quartz</w>": 17752, "ðŁĲĲ": 47735, "lex</w>": 9658, "fore</w>": 1332, "lik": 4831, "electoral</w>": 19544, "farmersmarket</w>": 41808, "cin": 2396, "vancouver": 31904, "passed</w>": 4957, "tua</w>": 41344, "vare": 38159, "amb</w>": 16853, "fuentes</w>": 44393, "huge</w>": 2699, "emmanuel": 48045, "Ø§Ø±": 40137, "?!?!?!</w>": 49084, "petti": 48001, "lindo</w>": 38467, "mund</w>": 14244, "arlington</w>": 17865, "tubs</w>": 41705, "algorithm</w>": 23295, "bali</w>": 10900, "collier</w>": 35748, "incident</w>": 10103, "jimi</w>": 30565, "achim</w>": 42335, "ðŁĶª</w>": 34545, "grandes</w>": 36382, "polished</w>": 21478, "alp": 32020, "aco</w>": 8800, "iraq</w>": 8543, "trs</w>": 24770, "gardening</w>": 10483, "producing</w>": 13579, "waterfalls</w>": 26692, "fonts</w>": 32801, "eternity</w>": 23832, "unusually</w>": 36465, "surprises</w>": 16920, "exclusion</w>": 40219, "plastic</w>": 6102, "monte": 8711, "aya</w>": 5917, "tz": 7710, "adas</w>": 23250, "embo": 23065, "export</w>": 14444, "pierce": 48462, "tn": 3827, "knock</w>": 11583, "zest</w>": 37709, "lia</w>": 6964, "ras": 23492, "biologist</w>": 35149, "der</w>": 801, "farrakhan</w>": 46293, "memorabilia</w>": 27488, "ald": 4539, "rune": 33882, "sigh</w>": 15505, "faucet</w>": 44273, "ðŁĺ»</w>": 12911, "ampton</w>": 9347, "inquis": 31171, "í</w>": 425, "tami</w>": 39429, "lights</w>": 3073, "miserable</w>": 26196, "emper": 12522, "ireland": 32806, "lantern</w>": 17185, "brooke</w>": 12549, "ational": 14205, "per": 703, "frida</w>": 36001, "suppre": 20542, "tah": 14822, "rx</w>": 15945, "artifacts</w>": 30249, "opi": 40056, "shistory</w>": 34979, "craziest</w>": 32690, "launched</w>": 6125, "smartphone</w>": 11290, "lostdog</w>": 48482, "essen</w>": 30489, "relaxation</w>": 22194, "smallest</w>": 18686, "bridg": 20623, "access": 7596, "instal": 38805, "thermost": 42391, "papaya</w>": 44098, "based</w>": 2812, "ibu": 43587, "minnesota</w>": 9968, "tuesdaythoughts</w>": 17988, "legislature</w>": 22309, "submer": 27156, "posh</w>": 26748, "tov</w>": 28970, "kyo": 13150, "ðŁİ§": 31254, "ðŁĺĺðŁĺĺðŁĺĺ</w>": 20208, "energi": 23044, "woodson</w>": 48967, "fritz</w>": 29860, "zhu": 42049, "orac": 24673, "meand": 48015, "rivals</w>": 15135, "saz</w>": 35577, "atal</w>": 24797, "advancement</w>": 35437, "var": 3187, "cooperative</w>": 24517, "sinatra</w>": 27262, "dakar</w>": 31137, "sharia</w>": 37244, "yards</w>": 7550, "hath</w>": 34416, "beijing</w>": 11796, "dhs</w>": 26849, "ðŁĶĶ</w>": 45753, "departure</w>": 17850, "dubai": 32599, "tric": 9511, "kong</w>": 6506, "weh": 48458, "rhodes</w>": 17785, "janis</w>": 44233, "wasps</w>": 35300, "thompson</w>": 8535, "promos</w>": 35044, "anand</w>": 22083, "blurry</w>": 21977, "te": 600, "rite</w>": 18429, "reefs</w>": 34459, "fremont</w>": 34578, "mattress</w>": 23438, "autonomous</w>": 20722, "researching</w>": 24544, "fandom": 47634, "cuz</w>": 9215, "ver": 624, "shap": 5581, "soulful</w>": 30196, "puni": 11479, "briefing</w>": 12991, "wethepeople</w>": 48030, "ðŁĻĨ</w>": 35730, "paralympic</w>": 30806, "ðŁį¹</w>": 35598, "sadness</w>": 20399, "l</w>": 331, "ballot</w>": 14185, "distributed</w>": 16419, "rishi": 48434, "phers</w>": 29531, "earn": 33977, "wynonna": 41456, "cod": 16132, "mize</w>": 19076, "it": 529, "essential": 47264, "vr": 16840, "ðŁĴĹðŁĴĹ</w>": 24064, "contour</w>": 34733, "gimm": 40692, "spraw": 46590, "rugby": 15091, "sport": 4379, "patt": 12637, "bladder</w>": 33593, "igu": 21279, "graphy</w>": 4897, "trenton</w>": 37470, "hydraulic</w>": 26189, "exfoli": 38823, "zar": 5458, "fj": 43183, "announcer</w>": 33626, "therefore</w>": 16865, "obl": 31452, "sausage</w>": 11855, "derby</w>": 7177, "season</w>": 1367, "tendency</w>": 47277, "wolverine</w>": 23353, "columnist</w>": 28958, "regi": 1608, "eng</w>": 6730, "urday</w>": 19742, "skril": 43149, "lyricist</w>": 49013, "eable</w>": 20693, "mulus</w>": 26180, "guaran": 9242, "creature</w>": 14317, "addressed</w>": 20817, "blender</w>": 25066, "kelowna</w>": 32963, "proof</w>": 5248, "essa</w>": 39125, "tyne</w>": 29729, "horseshoe</w>": 29242, "graffiti</w>": 11676, "bark</w>": 16560, "thalapathy": 45405, "chez": 49183, "dess": 7096, "atrix</w>": 43003, "abrams</w>": 29852, "flooded</w>": 19706, "iit": 39330, "varsity</w>": 8574, "choirs</w>": 43277, "atrocities</w>": 37551, "fonda</w>": 44609, "brokerage</w>": 41327, "sisterhood</w>": 37313, "cattle": 48799, "esh</w>": 13407, "cÃ©": 36454, "bpl</w>": 28901, "mott</w>": 21708, "jones": 19091, "priory</w>": 38665, "purple": 17837, "shenan": 20965, "ìĽĲ</w>": 36495, "nbl</w>": 42652, "fisher</w>": 9176, "brary</w>": 24520, "malay</w>": 42430, "pl</w>": 5678, "mash</w>": 15680, "marathon": 40764, "ç": 163, "pah</w>": 26884, "alien</w>": 9639, "regrets</w>": 23231, "windo": 3110, "stationary</w>": 29493, "greets</w>": 25464, "beyond</w>": 4432, "bonn</w>": 38969, "zh</w>": 41621, "outsourcing</w>": 34543, "hole": 47242, "niger</w>": 29920, "mana</w>": 15837, "sourced</w>": 23340, "twin</w>": 6769, "'@</w>": 26397, "mai</w>": 14595, "ðŁĴĿ</w>": 22002, "flock</w>": 21822, "kts</w>": 48577, "stupi": 18975, "threaten</w>": 26097, "utter": 18769, "podcast</w>": 4294, "fty</w>": 17494, "damon": 48503, "ico": 13697, "saucer</w>": 42272, "lungs</w>": 27366, "Ķ": 242, "tourney</w>": 12603, "reflecting</w>": 19700, "airshow</w>": 27139, "lapd</w>": 32557, "nicely</w>": 12303, "clemens</w>": 45896, "groningen</w>": 45639, "transformational</w>": 47135, "meaningless</w>": 48932, "belgium</w>": 10239, "donate</w>": 6429, "newsat</w>": 43979, "discussion</w>": 5060, "begging</w>": 25371, "anistan</w>": 9727, "produces</w>": 19940, "discar": 40532, "critics</w>": 16946, "âĵ": 27400, "middleeast</w>": 32783, "house": 4107, "ingrid</w>": 33496, "zas</w>": 48261, "denise": 45900, "scoops</w>": 41360, "awar": 5745, "ts": 2290, "volcanic</w>": 24072, "elic": 34743, "lauderdale</w>": 24352, "sergi": 47675, "pll": 47629, "scuba": 39053, "carrieunderwood</w>": 47338, "blackhistorymonth</w>": 20135, "intoler": 28534, "print</w>": 3557, "likely</w>": 5256, "halt</w>": 25640, "kurds</w>": 20888, "shoplocal</w>": 21775, "gays</w>": 28001, "=": 28, "sundaymotivation</w>": 46227, "electromagnetic</w>": 46530, "pharmacy</w>": 15293, "fortified</w>": 46486, "solareclipse</w>": 44727, "^^": 34454, "eigh": 13468, "coconut</w>": 9581, "nish</w>": 13256, "iwant": 42747, "fag</w>": 39305, "expert</w>": 6284, "mcgraw</w>": 40950, "kner</w>": 31578, "marsden</w>": 43344, "councillor</w>": 21179, "output</w>": 17255, "shiraz</w>": 35618, "fic</w>": 2059, "sara": 37196, "ðŁĵĬ</w>": 22244, "rei": 15343, "ëĿ": 44317, "constraints</w>": 41910, "cheese": 10738, "bergman</w>": 42597, "contact</w>": 3523, "aaaa</w>": 19336, "spartan": 26582, "efforts</w>": 6847, "fine</w>": 3797, "sammy</w>": 16758, "overdue</w>": 30240, "cooper</w>": 8133, "belgian</w>": 15008, "martian</w>": 30214, "rhett</w>": 42984, "snaps</w>": 16890, "hyster": 24235, "mater</w>": 23724, "h</w>": 327, "jointhe": 30422, "fla</w>": 20292, "hostel</w>": 27225, "rollout</w>": 47710, "write</w>": 4946, "twilight</w>": 14512, "lips</w>": 8847, "mutant</w>": 28384, "fs": 23699, "layoffs</w>": 29019, "alkal": 33450, "bricks</w>": 21029, "xbox": 18063, "nove": 30507, "gara</w>": 28710, "theatre": 19857, "nourished</w>": 48354, "competitors</w>": 23638, "ðŁĳĮ": 4890, "trivia</w>": 10642, "hick": 14813, "itis": 33539, "preorders</w>": 45985, "rosemary</w>": 19472, "moy": 27276, "cutt</w>": 47647, "dublin</w>": 6145, "minute</w>": 4497, "stance</w>": 3542, "[...]</w>": 43790, "poppy": 32194, "outlander</w>": 17095, "netherlands</w>": 11060, "hannel</w>": 43477, "ouro": 41224, "how": 7470, "arun": 16105, "strawberry</w>": 10233, "tropic": 21794, "bay</w>": 2174, "orthopedic</w>": 49341, "jew</w>": 27450, "spell</w>": 11230, "matte": 31237, "ðŁĳ®": 42686, "ffxiv</w>": 26569, "reflex</w>": 36050, "franken": 20487, "brt</w>": 46936, "bv": 18958, "ðŁı³ï¸ı": 26844, "pictorial</w>": 40640, "anthus</w>": 37639, "~\"</w>": 48442, "throws</w>": 14723, "javelin</w>": 41701, "sange": 12466, "closes</w>": 11354, "oriental</w>": 23056, "curator</w>": 20753, "bubbles</w>": 17648, "ðŁıī</w>": 26020, "combines</w>": 22991, "ðŁĺª": 38181, "cki": 36916, "krakow</w>": 40033, "eque": 19518, "ðŁĩ¹ðŁĩ": 36250, "lc": 9584, "shet": 15850, "skeleton</w>": 20062, "ric</w>": 4798, "sir</w>": 3846, "âĢ¼ï¸ı</w>": 8310, "con": 616, "calvert</w>": 47134, "ango</w>": 19090, "restor": 8984, "reflects</w>": 15821, "tame</w>": 32778, "thesis</w>": 10673, "revolt</w>": 31697, "gious</w>": 14419, "breakable</w>": 30691, "brisbane</w>": 12407, "saison</w>": 33256, "salon": 33916, "sued</w>": 22225, "monster": 14454, "kimberly</w>": 27465, "crusher</w>": 44923, "bells</w>": 12811, "states</w>": 4218, "secu": 4894, "stapleton</w>": 45228, "norma</w>": 35757, "flip": 20385, "feld</w>": 14219, "rollins</w>": 27724, "whatever</w>": 6743, "ðŁļĹ": 33054, "isf</w>": 44036, "hair</w>": 2225, "lester": 23157, "of": 684, "indication</w>": 38539, "roman": 4416, "breweries</w>": 35277, "omin": 16457, "talent</w>": 5114, "merchandising</w>": 49196, "shin": 5664, "evi": 5348, "verton</w>": 40632, "deepi": 19371, "britain</w>": 6272, "thru</w>": 6162, "pras</w>": 41562, "å</w>": 417, "gunsense</w>": 44781, "akest</w>": 46679, "femin": 11423, "jerus": 12257, "fol</w>": 48616, "bow": 2297, "ules</w>": 26274, "bliss</w>": 12893, "pyg": 41450, "cabinet</w>": 9937, "cay</w>": 37399, "gerrard</w>": 26538, "dolce</w>": 30661, "ukrunchat</w>": 34481, "peshawar</w>": 29230, "motivates</w>": 44684, "every</w>": 1505, "pacific": 19723, "dreamed</w>": 27984, "nyo</w>": 44586, "resemblance</w>": 26856, "analytical</w>": 34550, "gocougs</w>": 34202, "porters</w>": 15670, "actually</w>": 2955, "callum</w>": 23224, "efcc</w>": 46087, "judah</w>": 41066, "ville</w>": 1930, "marley</w>": 16504, "outdoor</w>": 6368, "qe</w>": 30974, "âĨĵ</w>": 41603, "cyborg</w>": 36650, "republic": 6376, "farm": 9066, "hockey": 16499, "robyn</w>": 34533, "barnet</w>": 41943, "imp": 3335, "facep": 45285, "political": 37744, "afe</w>": 13912, "hea</w>": 32790, "´": 112, "choco</w>": 32692, "vina</w>": 35682, "clarinet</w>": 41178, "delight</w>": 13073, "entation</w>": 37412, "jonas": 42373, "tobac": 12611, "unstoppable</w>": 23484, "sizing</w>": 28330, "gas": 5047, "assen</w>": 38651, "slee</w>": 38977, "offender</w>": 48294, "carol</w>": 11489, "aad</w>": 35894, "mack</w>": 12145, "grew</w>": 10451, "comparable</w>": 27092, "bethan": 18781, "lolo": 16895, "amped</w>": 22640, "crisp</w>": 15145, "wizar": 49121, "bett</w>": 20489, "Ď</w>": 458, "assets</w>": 13170, "song</w>": 2295, "nifty</w>": 25604, "testi": 18373, "dau": 3162, "profitable</w>": 25465, "vsco</w>": 32822, "accessible</w>": 13977, "sab</w>": 23213, "wthr": 45269, "peters</w>": 16336, "scrumptious</w>": 40987, "oxid": 17701, "hibs</w>": 42814, "convicted</w>": 18668, "ceremonial</w>": 33281, "kyc</w>": 37758, "merry</w>": 5779, "vala</w>": 48525, "colin</w>": 10238, "âľ¨âľ¨</w>": 21985, "costello</w>": 30667, "intrac": 46195, "ðŁĮĻ</w>": 23283, "kicker</w>": 26338, "pearls</w>": 19581, "bic</w>": 10675, "actions</w>": 6271, "young</w>": 1888, "....#</w>": 20346, "V": 53, "autos</w>": 31118, "battlefield</w>": 16055, "cry</w>": 6290, "bhar": 9108, "ophone</w>": 26345, "corro</w>": 42033, "platt</w>": 40097, "vill": 10481, "suggest</w>": 13356, "stimul": 16434, "serrano</w>": 44236, "naissance</w>": 44761, "vinson</w>": 45945, "lvl</w>": 31256, "application</w>": 7241, "itic</w>": 11950, "duff": 38071, "mist": 12610, "afcb</w>": 44276, "yeats</w>": 44903, "conce": 9145, "josephine</w>": 34866, "fem": 24574, "âĺİï¸ı</w>": 27219, "amazingly</w>": 20368, "mbo": 25733, "demar</w>": 46566, "wil": 1352, "alities</w>": 27925, "ðŁĴĸðŁĴĸ": 19562, "isa": 11034, "anthony": 17477, "upp</w>": 45946, "tba</w>": 34363, "mediac": 37490, "throw": 3315, "matthi": 29853, "thic</w>": 11794, "collap": 16881, "ðŁĴ£</w>": 29006, "mcmaster</w>": 42703, "btc</w>": 10315, "hepatitis</w>": 32169, "ðŁĶİ</w>": 44935, "admirer</w>": 48344, "rix</w>": 9483, "sober</w>": 24487, "affiliate</w>": 18652, "jaye</w>": 45703, "edinburgh</w>": 8068, "furi": 40816, "littlemix</w>": 29731, "rero</w>": 21860, "harding</w>": 24382, "operator</w>": 15972, "scram": 17289, "trend": 19986, "pear</w>": 18820, "ftw</w>": 19298, "pinst": 41173, "unnecessary</w>": 24100, "cannons</w>": 46269, "waitress</w>": 39760, "depe": 36118, "xe</w>": 19183, "directional</w>": 38687, "able": 10102, "paprika</w>": 44793, "ª</w>": 359, "Ã©s</w>": 20507, "haley</w>": 16839, "idyllic</w>": 46632, "sphe": 33691, "yyyy": 38749, "indoor": 44478, "sor": 1852, "vijay</w>": 10823, "consumers</w>": 14014, "lithograph</w>": 49022, "bats</w>": 14984, "tik</w>": 32403, "shun": 24479, "citi</w>": 30270, "getin": 25822, "aar": 4695, "carou": 32224, "K": 42, "ssively</w>": 28060, "osborne</w>": 22402, "biode": 43502, "only": 11646, "gonzalez</w>": 18198, "âĢ²</w>": 32633, "acce": 8564, "modes</w>": 30454, "kingjames</w>": 33153, "butt</w>": 31523, "seungri</w>": 41627, "lear": 1146, "tatt": 9232, "shado": 9325, "itten</w>": 4343, "iheartradio</w>": 25934, "realmadrid</w>": 27866, "olivi": 20773, "choir</w>": 9214, "laundering</w>": 34079, "sumptuous</w>": 47354, "unbeliev": 11383, "telecommunications</w>": 39900, "fingers</w>": 9690, "emcee</w>": 42038, "annihil": 32734, "ortega</w>": 39727, "vell</w>": 32997, "rupees</w>": 44110, "countless</w>": 21819, "action</w>": 1816, "mendo": 19327, "charlotte": 18445, "rocky": 33481, "woodstock</w>": 29486, "discord</w>": 23582, "abby</w>": 14694, "xan": 45530, "qui</w>": 18046, "bonne</w>": 25844, "cheek</w>": 21227, "desses</w>": 43913, "polk</w>": 33317, "goosebumps</w>": 32254, "cling": 37068, "gourmet</w>": 19111, "lists</w>": 12281, "djokernole</w>": 42830, "qualifications</w>": 35225, "pendant</w>": 12415, "wordpress</w>": 15193, "dissol": 27398, "countdown": 39559, "oooooooo": 15473, "proposition</w>": 44780, "warwickshire</w>": 36766, "calle": 47699, "suave</w>": 47305, "shelby": 36906, "fera</w>": 37705, "canceled</w>": 25874, "customs</w>": 16880, ")@</w>": 41928, "contentmarketing</w>": 20429, "grabbed</w>": 22856, "manipul": 19237, "wook</w>": 29192, "grazie</w>": 38698, "undertaker</w>": 40144, "pover": 8432, "sic": 8278, "clasico</w>": 43567, "moot</w>": 46895, "anthe": 34167, "thanks</w>": 1085, "ghtning</w>": 39740, "accredited</w>": 27647, "guy</w>": 2149, "vermont</w>": 19241, "otd</w>": 5683, "herb</w>": 15302, "strategically</w>": 45706, "bonkers</w>": 39865, "citiz": 5816, "brunch</w>": 9113, "toner</w>": 40614, "neur</w>": 31976, "britton</w>": 37422, "celtic</w>": 10523, "filtered</w>": 29926, "unforgettable</w>": 16173, "ctr</w>": 18481, "exclusive</w>": 3747, "saturdaymotivation</w>": 40843, "mile": 7833, "allow</w>": 6722, "agen": 10101, "promin": 35217, "fort</w>": 2921, "gnome</w>": 33643, "tsb</w>": 45015, "magician</w>": 26368, "waltz</w>": 35982, "utc</w>": 18196, "neve": 44099, "solitude</w>": 33199, "kno": 1482, "playful</w>": 23871, "eating</w>": 4371, "uruguay</w>": 27931, "shaking</w>": 19101, "tutti</w>": 46880, "mainland</w>": 27629, "coyotes</w>": 30423, "calf</w>": 17508, "yankee</w>": 21554, "library": 25713, "ke</w>": 618, "wut</w>": 28590, "beautifully</w>": 10627, "snake": 30133, "fle": 2428, "swimsuit</w>": 25504, "ðŁĺĬðŁĺĬ</w>": 20842, "awgs</w>": 35275, "donation</w>": 7924, "ss</w>": 632, "tome</w>": 24283, "terns</w>": 25251, "ces</w>": 1604, "stru": 1666, "waitrose</w>": 37164, "reinfor": 48161, "wholesome</w>": 35959, "sata</w>": 41520, "debris</w>": 19208, "atar</w>": 7995, "aries</w>": 5213, "fixtures</w>": 19904, "oria</w>": 11474, "japanese": 27211, "hipster</w>": 19987, "mists</w>": 28636, "discarded</w>": 45197, "à¬": 32791, "californi": 21303, "docu": 4433, "uki</w>": 9009, "marys": 40905, "bears</w>": 6182, "ahmad": 32167, "kyr": 26329, "paintings</w>": 9956, "securing</w>": 24759, "pilgrim</w>": 32662, "tagged</w>": 12969, "immense</w>": 22722, "rdr</w>": 44364, "ocs</w>": 27297, "booted</w>": 42564, "bass": 22831, "bum": 27683, "hle</w>": 32389, "alu</w>": 27991, "cliffs</w>": 20953, "winds": 12668, "nottingham</w>": 12852, "ariel": 47959, "berwick</w>": 40407, "rapping</w>": 42864, "adoptdontshop</w>": 20089, "dÃ©": 25466, "walcott</w>": 45744, "rises</w>": 13362, "kabo": 47974, "proton</w>": 40009, "appeti": 24179, "fridayfeeling</w>": 11952, "emporium</w>": 48541, "rei</w>": 26033, "ðŁĴİ</w>": 15874, "yield</w>": 16825, "oti</w>": 45564, "clas": 32003, "âļ«": 15374, "allergy</w>": 24408, "fancy</w>": 6733, "pimp": 35789, "teu": 47152, "filmmakers</w>": 24896, "rockstars</w>": 46639, "mue</w>": 40717, "antisemitism</w>": 36630, "seth</w>": 11870, "fcc</w>": 21240, "honduras</w>": 29715, "exist": 10899, "sanitary</w>": 33842, "edmonton</w>": 15058, "clipped</w>": 45524, "jb</w>": 13637, "coim": 41528, "guilt</w>": 26354, "miro</w>": 48317, "projections</w>": 34638, "allstars</w>": 31198, "bobby": 17847, "decor</w>": 6928, "salty</w>": 20678, "?..</w>": 43905, "ahan": 45061, "calm</w>": 7011, "zom": 6623, "labeled</w>": 32720, "R": 49, "toy</w>": 5988, "astle</w>": 46141, "preparations</w>": 19135, "african": 17471, "seed</w>": 6488, "lun": 3221, "presenting</w>": 5339, "functions</w>": 18001, "dad</w>": 2639, "veggie</w>": 19401, "tter</w>": 5165, "incorporating</w>": 40303, "build</w>": 3289, "abstract": 23885, "hate": 23546, "squish": 42607, "harvested</w>": 35899, "fiba</w>": 34993, "jorge": 48761, "tweeting</w>": 8901, "poison</w>": 17074, "exhau": 11154, "nutcracker</w>": 36733, "delhi": 26723, "celtic": 21897, "academic</w>": 7935, "zer</w>": 3716, "aker</w>": 3074, "afg</w>": 33994, "utt": 17096, "plicity</w>": 19823, "azzi</w>": 18758, "goddess</w>": 10808, "chicks</w>": 17810, "moto</w>": 11431, "itting</w>": 3147, "degra": 28939, "tiz</w>": 19376, "cana</w>": 28341, "logger</w>": 39089, "raju</w>": 47029, "hr</w>": 4086, "ãĥŀ": 48924, "soft": 12778, "deutsch": 30389, "joel": 19819, "medication</w>": 23771, "jewels</w>": 20205, "cassi": 14942, "gabby": 48115, "asters</w>": 33139, "emil</w>": 40624, "treas": 8591, "impulse</w>": 29683, "protect</w>": 4817, "guth": 31696, "culmin": 33778, "blush</w>": 22889, "ellic": 38905, "fficient</w>": 20424, "ople</w>": 25663, "napkin</w>": 38930, "anus</w>": 27084, "audio": 13792, "pe": 661, "parton</w>": 43245, "kram": 19075, "human</w>": 2751, "hell": 8410, "vixx</w>": 32106, "eel</w>": 27462, "Ľ</w>": 505, "demsinphilly</w>": 43091, "commences</w>": 48551, "hortons</w>": 38422, "oftball</w>": 39768, "ðŁĳıðŁı¾</w>": 45450, "ul</w>": 6625, "bookworm</w>": 20743, "larry</w>": 8242, "vents</w>": 12833, "comfy</w>": 15736, "zeta</w>": 30954, "krispy</w>": 49292, "dali</w>": 25703, "shopping</w>": 4266, "spri": 35498, "bars</w>": 8616, "callahan</w>": 43313, "ramon</w>": 27958, "lr": 20572, "kingdoms</w>": 43890, "sproud</w>": 37686, "shepherd</w>": 13242, "physicist</w>": 29052, "cafeteria</w>": 32817, "lawyer</w>": 10552, "puts</w>": 7898, "plots</w>": 25672, "legged</w>": 25830, "hmu</w>": 21630, "venison</w>": 40037, "adobe": 29256, "itec</w>": 43936, "batsman</w>": 35432, "heats</w>": 36106, "taylor</w>": 3961, "bula</w>": 18726, "richmond": 34143, "guri</w>": 43888, "\"'</w>": 31065, "harvard</w>": 12848, "abbas</w>": 24412, "testing</w>": 4967, "skag": 31948, "mails</w>": 45213, "ä¸": 19759, "coral": 31220, "lenny</w>": 30124, "mud": 17491, "!!#</w>": 34997, "ignite</w>": 25210, "fier": 11167, "rowan</w>": 26240, "ðŁĳįðŁı»</w>": 15129, "blink</w>": 18976, "kaw": 10842, "splatoon</w>": 22565, "canvassing</w>": 33783, "underground</w>": 9396, "allergic</w>": 28809, "neti": 43980, "florian</w>": 41861, "urable</w>": 40194, "chops</w>": 26321, "motm</w>": 41192, "bbs</w>": 10002, "depth</w>": 10350, "dominos</w>": 39770, "saving</w>": 6979, "scup</w>": 21506, "rj</w>": 20949, "inst": 1264, "fficial": 39818, "cpec</w>": 48007, "lette</w>": 10301, "weet</w>": 17742, "riders</w>": 10826, "forehead</w>": 25394, "Ã¯": 35689, "kenne": 6209, "moving</w>": 3584, "concerto</w>": 24710, "doro</w>": 37389, "chaps</w>": 36823, "awareness": 19217, "blau": 45307, "yixing</w>": 32120, "lap</w>": 8639, "dang": 4283, "stills</w>": 20259, "omer": 24087, "gory</w>": 7160, "balla": 42246, "prevention</w>": 9500, "+.</w>": 25238, "ddr</w>": 26027, "forward": 47031, "chucky</w>": 42026, "nrc</w>": 45786, "aha": 12082, "squad</w>": 4234, "promis": 3963, "demon": 5635, "grassy</w>": 44140, "folder</w>": 25717, "ced</w>": 2323, "brazil</w>": 6305, "simi</w>": 38073, "krat": 30470, "kolkata</w>": 18011, "usairforce</w>": 42179, "reversal</w>": 33367, "¬ë": 31736, "detta</w>": 45438, "asso</w>": 17617, "barrac": 40835, "lem": 10213, "startup</w>": 5882, "ees</w>": 40308, "incarceration</w>": 39887, "tvd</w>": 25889, "thermom": 31138, "ven</w>": 1638, "tural": 45143, "stran": 18411, "claims</w>": 6852, "gangster</w>": 26514, "teapo": 35745, "aconf</w>": 38851, "prizes</w>": 9268, "skateboarding</w>": 31352, "ironically</w>": 36779, "stressful</w>": 24268, "stg</w>": 48387, "free</w>": 1139, "arns</w>": 46692, "vapor</w>": 30729, "ligam": 31077, "whois": 41884, "oda</w>": 24777, "renders</w>": 39419, "fearthe": 33449, "chavez</w>": 27480, "liven": 41057, "zzy": 21275, "stanford</w>": 15087, "lettu": 17933, "âĿĹ</w>": 29079, "beatz</w>": 33363, "âķĲ": 48039, "cucumber</w>": 19787, "gea</w>": 26790, "thoughtful</w>": 19592, "sinks</w>": 32710, "jahan</w>": 47827, "ayr</w>": 36473, "antit": 37833, "timo": 13390, "inventory</w>": 19444, "bachelore": 26009, "campu": 19687, "dimitri</w>": 48840, "principles</w>": 13755, "ðŁĮ·": 32328, "weav": 22260, "southend</w>": 25583, "parent": 47848, "mbe</w>": 27004, "andfriends</w>": 36871, "tuscaloosa</w>": 44375, "yunho</w>": 39748, "punt</w>": 32699, "caturday</w>": 20892, "modal</w>": 33157, "ole</w>": 1947, "us</w>": 718, "lagun": 18500, "yqr</w>": 36881, "mob": 2818, "ssionist</w>": 27682, "crouch</w>": 36506, "em</w>": 2270, "âĸ¬âĸ¬": 36975, "morecam": 37305, "hayley": 39986, "quinoa</w>": 26703, "burmese</w>": 47906, "colorado</w>": 6742, "detached</w>": 26252, "viol": 3164, "salis</w>": 39378, "compar": 7580, "migr": 3736, "mafia</w>": 14890, "balu": 38093, "wilt": 23394, "cili": 18977, "neilhimself</w>": 45682, "ayi</w>": 33025, "ðŁĻĤ</w>": 14860, "ymi</w>": 5271, "ug": 3754, "cleared</w>": 14880, "indi": 1098, "persona</w>": 18401, "etna</w>": 41940, "rewatch</w>": 35610, "dhoni</w>": 25698, "joong</w>": 26544, "thin</w>": 7847, "irie</w>": 42979, "ground</w>": 2461, "rca</w>": 33942, "grass</w>": 5922, "abled</w>": 10655, "clever</w>": 13385, "zab": 22982, "berry</w>": 3488, "tries</w>": 4315, "alco</w>": 45446, "explode</w>": 31262, "sniper</w>": 22157, "porti": 45760, "ashes</w>": 12587, "enga</w>": 22297, "hola</w>": 28724, "pouch</w>": 26811, "grande": 37514, "shld</w>": 49359, "painful</w>": 16361, "alzheimer</w>": 21151, "hai": 8734, "tick": 24640, "bakhtawarbz</w>": 47118, "gail</w>": 27676, "depression</w>": 10023, "boom": 9609, "discount</w>": 7638, "timehop</w>": 19944, "tedly</w>": 8539, "assu": 8328, "wer": 6316, "criticism</w>": 17405, "ðŁ§¡</w>": 24578, "khalifa</w>": 21389, "encia</w>": 30068, "thousand</w>": 9344, "zed": 21047, "cpr</w>": 25134, "ŁãģĦ</w>": 46023, "wahl": 27500, "ðŁĴĸ</w>": 5582, "headlines</w>": 14706, "latam</w>": 40012, "kle": 7612, "kew": 38014, "matologist</w>": 48842, "void</w>": 21561, "brand": 3910, "H</w>": 295, "âļ½ï¸ı</w>": 6768, "able</w>": 863, "christmaseve</w>": 44381, "vast</w>": 16414, "kroger</w>": 36344, "ja</w>": 2641, "kanu</w>": 44565, "queries</w>": 32958, "defends</w>": 20134, "spi</w>": 37080, "vall</w>": 35295, "punish</w>": 34569, "elizabeth</w>": 7026, "paragu": 38021, "usable</w>": 22890, "specifications</w>": 39705, "om</w>": 3932, "kap</w>": 45279, "akin</w>": 13601, "sary</w>": 15398, "ggi</w>": 21662, "cim</w>": 30021, "seen": 36273, "sofa</w>": 15723, "gio</w>": 8050, "<": 27, "relationships</w>": 10610, "ugh</w>": 12755, "federal</w>": 6369, "polis</w>": 16133, "luch": 36646, "pockets</w>": 19566, "sÃ©": 37879, "aler</w>": 27335, "above</w>": 4348, "onial</w>": 27599, "kathy": 34775, "peaks</w>": 14067, "exams</w>": 14028, "laurence</w>": 29353, "endorses</w>": 34603, "mums</w>": 17868, "trunk</w>": 18347, "kitty</w>": 8417, "volution</w>": 24043, "straight</w>": 4241, "inequality</w>": 17372, "ë²": 48267, "badger</w>": 22363, "anton": 5497, "ëĭĪ": 33708, "cal": 1198, "msu</w>": 17298, "suzy</w>": 26552, "haley": 37330, "gayo</w>": 36768, "layers</w>": 15900, "rimin": 11527, "assembly": 34542, "maÃ±ana</w>": 39354, "random</w>": 6160, "ram</w>": 2007, "mini": 1810, "sabah</w>": 32854, "edics</w>": 30641, "ðŁıĬ": 33061, "blooming": 45175, "enh": 7449, "youth</w>": 3281, "seau</w>": 32263, "soothe</w>": 44424, "\";</w>": 37549, "booth</w>": 3971, "amuse": 21421, "uo": 30874, "been</w>": 1025, "erina</w>": 25176, "terri": 4504, "instructors</w>": 31998, "enight": 32848, "indom": 42926, "genic</w>": 15750, "fdi</w>": 45579, "ÑĢÐ¾Ð´": 47039, "tien</w>": 47538, "swis": 23611, "coral</w>": 12054, "mansion</w>": 13404, "lz</w>": 30818, "vira</w>": 35910, "pecu": 34200, "dram": 6937, "neutr": 17207, "suit</w>": 3940, "slr</w>": 21325, "raiser</w>": 33555, "lenders</w>": 42443, "literal</w>": 24269, "rhine</w>": 44833, "skill</w>": 10604, "entering</w>": 12580, "âĽĦï¸ı</w>": 45465, "reborn</w>": 30229, "need</w>": 1262, "gills</w>": 48851, "teau</w>": 24931, "thalapathy</w>": 23324, "radial</w>": 42028, "consist</w>": 33735, "indu": 2298, "cnbc": 41242, "biography</w>": 15423, "hosts</w>": 8718, "segment</w>": 15615, "ç</w>": 419, "cad</w>": 20166, "poke": 6892, "daes": 47282, "travelphotography</w>": 22808, "zn</w>": 18004, "neville</w>": 19269, "adrienne</w>": 40081, "natasha</w>": 23093, "wahoo</w>": 47995, "kil</w>": 39337, "leave</w>": 3258, "poutine</w>": 43768, "umd</w>": 42067, "worldbookday</w>": 31191, "yummy</w>": 7687, "folsom</w>": 42108, "tennant</w>": 29310, "municipality</w>": 29987, "leone</w>": 22864, "cic</w>": 21517, "spon</w>": 48216, "trivi": 21228, "bric": 27055, "duet</w>": 25457, "bakar</w>": 41414, "ðŁ¤Ł": 48509, "stre": 1079, "spar</w>": 34576, "bby</w>": 3810, "soap</w>": 11088, "apple</w>": 3055, "advance": 27291, "wal": 1056, "comp</w>": 11679, "unite</w>": 11305, "ðŁĺ´ðŁĺ´</w>": 49307, "oung</w>": 25341, "jesus</w>": 4070, "culars</w>": 45719, "phal": 19962, "ðŁĲ°": 35378, "urstrulymahesh</w>": 35314, "cel": 2269, "sticker</w>": 11270, "stat</w>": 15216, "apac</w>": 34320, "arden": 44600, "tim</w>": 3863, "strawberries</w>": 17796, "ï¿½</w>": 39802, "\"....</w>": 37785, "âľĮ</w>": 12656, "practices</w>": 9040, "fide</w>": 45375, "janu": 3623, "wallstreet</w>": 45341, "singapore</w>": 6754, "hh</w>": 5180, "ive</w>": 8653, "chur": 2309, "graphies</w>": 40164, "hamillhimself</w>": 47324, "ecological</w>": 25127, "shutdown</w>": 16051, "à¥": 7410, "timber": 14441, "pola</w>": 43876, "cinderella</w>": 21515, "adia</w>": 26874, "extras</w>": 29817, "kun</w>": 21842, "aggre": 10426, "snowden</w>": 32154, "tallest</w>": 19774, "replies</w>": 18808, "blogging</w>": 18090, "corrie</w>": 23961, "racha": 21952, "ðŁĺħ</w>": 9188, "chart": 42685, "menswear</w>": 18803, "apparent</w>": 23963, "lark</w>": 23536, "males</w>": 14426, "steep</w>": 20714, "hanover</w>": 33246, "southampton</w>": 15767, "ens": 41799, "whereabouts</w>": 47808, "à®ª</w>": 47388, "daniel": 7859, "bharti</w>": 46803, "manish": 41759, "tango</w>": 24089, "higgins</w>": 21783, "zell</w>": 39526, "ivote": 45835, "her</w>": 899, "brazili": 45697, "exercises</w>": 19669, "jl": 25027, "cathar": 43784, "leicester</w>": 11510, "yoda</w>": 31922, "hyder": 13960, "acron": 37770, "mos": 28658, "gist</w>": 21241, "peabo": 34083, "jurisdic": 37714, "ener": 2244, "forty</w>": 24399, "legislative</w>": 16755, "âģ©": 20097, "mta</w>": 28691, "seriea</w>": 32660, "profiles</w>": 22070, "=></w>": 9714, "tired</w>": 6533, "restaurant</w>": 4489, "answers</w>": 8692, "elland</w>": 43326, "nada</w>": 31683, "sponge</w>": 24345, "\"!</w>": 10377, "stall": 24636, "rosario</w>": 33640, "kant</w>": 47132, "batter": 12654, "ipo</w>": 24090, "bundy</w>": 37332, "avenue</w>": 7042, "social": 4803, "proves</w>": 16119, "stitch": 30003, "wali</w>": 14768, "big</w>": 1205, "waco</w>": 36035, "ab": 596, "xc</w>": 12515, "kelli</w>": 46190, "atec": 37352, "taekwondo</w>": 39963, "indone": 6180, "éģ": 44854, "vm": 16204, "hogg</w>": 42005, "chive</w>": 29222, "calculus</w>": 35104, "remembranceday</w>": 48333, "bree": 7892, "fright</w>": 40207, "effort": 40078, "uncondition": 46561, "vlog</w>": 18894, "solidi": 46136, "oni</w>": 8048, "sayers</w>": 44116, "alejandro</w>": 32950, "jon</w>": 6139, "witnesses</w>": 22778, "tfw</w>": 16741, "hoh</w>": 43947, "kara</w>": 12552, "jumped</w>": 16901, "jonathan</w>": 7762, "forgot</w>": 6483, "happ": 784, "bel</w>": 3543, "cauliflower</w>": 23802, "caliber</w>": 32820, "see</w>": 862, "admir": 17031, "sem</w>": 17106, "confirm</w>": 12130, "ðŁĳĭ</w>": 17686, "anushka": 42080, "fidelity</w>": 30109, "ooooo</w>": 12532, "stun</w>": 37959, "siemens</w>": 30147, "coer": 41198, "connection</w>": 26840, "satisf": 22941, "debu": 9790, "ibra": 15476, "cams</w>": 32590, "ðŁİ¨</w>": 13461, "stra</w>": 6253, "issa": 38579, "node</w>": 24871, "dji</w>": 28379, "display</w>": 4456, "treatments</w>": 15839, "vick": 15116, "abbo": 13536, "kesh</w>": 19751, "guided</w>": 13194, "steroids</w>": 37670, "whelan</w>": 40715, "mmva</w>": 42666, "souven": 20210, "councils</w>": 29938, "entrepreneur</w>": 8033, "lei</w>": 21830, "oregon": 21759, "snowball</w>": 39254, "assemble</w>": 26169, "negativity</w>": 34658, "pencils</w>": 21909, "experim": 6697, "fgo</w>": 46113, "scandal": 35420, "worth": 10671, "own": 3845, "viz</w>": 31786, "akos</w>": 44659, "pfa</w>": 47839, "wide": 19341, "deposit</w>": 16775, "pain": 2141, "abide</w>": 49163, "jim</w>": 4550, "nao</w>": 39319, "rebu": 43162, "zie": 29316, "jax": 22348, "gog</w>": 42949, "ðŁĩ¬ðŁĩ§": 23762, "brea": 7318, "flaw": 14268, "noisse": 45686, "condition": 36978, "winning</w>": 2577, "withdraw</w>": 31670, "dust": 29723, "lakes</w>": 9265, "battles</w>": 14213, "cheerleading</w>": 36366, "hua</w>": 22138, "billionaire</w>": 19475, "norwood</w>": 37889, "brows</w>": 14998, "âľĭ</w>": 30239, "prolife</w>": 32126, "adays</w>": 24337, "footpath</w>": 48858, "influenza</w>": 39897, "jambo": 35599, "lw</w>": 35115, "gain</w>": 6202, "affordable": 43944, "pleasing</w>": 32893, "augh</w>": 14005, "avoc": 12291, "grams</w>": 6294, "acct</w>": 45569, "popcorn</w>": 15034, "array</w>": 17293, "latino</w>": 19470, "zie</w>": 8956, "mig</w>": 28743, "seahawks</w>": 15341, "twt</w>": 6825, "invo": 29417, "sasia</w>": 44751, "elevated</w>": 23967, "lu": 664, "ham</w>": 1714, "irah</w>": 35724, "ya</w>": 1430, "announcement</w>": 6932, "peaceful</w>": 9461, "tope": 32149, "aties</w>": 40060, "ker</w>": 1485, "sos</w>": 5792, "eling</w>": 9990, "ela": 11284, "napa</w>": 20545, "unpopular</w>": 40232, "gron": 22345, "norm</w>": 22457, "chariot</w>": 38811, "rained</w>": 32310, "eger</w>": 22767, "spent</w>": 4429, "vi</w>": 4259, "linn</w>": 37431, "novasco": 33785, "dow</w>": 10688, "skates</w>": 31479, "digimon</w>": 44181, "broch": 21419, "res": 4466, "âı°</w>": 12714, "transmitted</w>": 48605, "fl": 1082, "copernic": 45519, "mio</w>": 26366, "ðŁĳıðŁĳı": 10356, "senators</w>": 16889, "harriet</w>": 27154, "gh</w>": 790, "Ä": 128, "santo</w>": 18400, "yusuf</w>": 33222, "toxins</w>": 36618, "faceoff</w>": 42710, "kenyan</w>": 22624, "mal</w>": 3796, "fili": 9590, "agility</w>": 32161, "inductee</w>": 39558, "heaton</w>": 34557, "yearling</w>": 48392, "clays</w>": 26128, "idol</w>": 8884, "bonnie</w>": 18555, "doubles</w>": 12539, "confu": 6890, "pole</w>": 8170, "tomorrow": 19728, "gd</w>": 14604, "iambic": 43668, "shelby</w>": 16885, "elon": 26381, "associations</w>": 33209, "second": 9329, "...</w>": 678, "tions</w>": 1371, "kardashian</w>": 14578, "dipping</w>": 33544, "sweat": 10282, "apro": 42712, "watermelon</w>": 19889, "ĩ": 229, "fairy": 17021, "gale</w>": 21380, "bathrooms</w>": 26434, "bsbi": 41728, "saleh</w>": 38353, "dailys": 43160, "heroes</w>": 5506, "justices</w>": 44356, "bane</w>": 9597, "lies</w>": 3205, "doorstep</w>": 19533, "bearded</w>": 28459, "segreg": 49117, "geelong</w>": 34555, "gateshead</w>": 40051, "featured</w>": 4743, "axes</w>": 45970, "magazine</w>": 3113, "tackle</w>": 10294, "beast": 20847, "aofficial</w>": 30840, "guggenheim</w>": 37135, "kobe</w>": 14470, "tandem</w>": 33756, "longhorn</w>": 41047, "rabbi</w>": 20959, "fh": 21649, "stampede</w>": 25384, "ghead</w>": 40783, "parrot</w>": 23565, "heat</w>": 4403, "ttt</w>": 17256, "zon": 15109, "must": 6783, "acia</w>": 30163, "holler</w>": 49047, "tson</w>": 47140, "âļª": 11922, "ðŁķĬ</w>": 37760, "eye": 5034, "agreement</w>": 8286, "producers</w>": 13883, "wc</w>": 5755, "tuni": 16270, "advising</w>": 39648, "imac</w>": 40675, "rrp</w>": 36967, "deploy</w>": 26944, "trippy</w>": 35137, "ugu</w>": 18144, "anup": 29617, "drilled</w>": 46338, "laughed</w>": 16746, "shopsmall</w>": 35942, "ðŁĵĭ</w>": 46351, "leafy</w>": 42616, "preorder</w>": 16703, "traditions</w>": 18016, "crab": 27382, "\"\"\"</w>": 25539, "ducation</w>": 17197, "icio</w>": 24207, "://</w>": 12441, "ego": 34712, "romantic": 41457, "ðĿĲ": 15889, "lga</w>": 39348, "iders</w>": 8980, "ddy": 14981, "Ċ</w>": 454, "deir": 42948, "afghan</w>": 15919, "icious</w>": 3325, "shad</w>": 23874, "damned</w>": 28428, "offen": 7231, "johnny</w>": 6904, "...#</w>": 8195, "canon": 17749, "sphinx</w>": 46487, "votel": 41379, "fuzz": 47128, "b</w>": 321, "kina</w>": 28518, "jordan": 14644, "orni": 27713, "micah</w>": 33870, "packet</w>": 25022, "jos</w>": 19661, "tion</w>": 740, "along</w>": 2528, "chav": 28997, "bottoms</w>": 31524, "snapp": 10185, "abbott": 43737, "(@</w>": 2181, "optimum</w>": 35974, "shasta</w>": 46727, "olin": 37823, "kasich</w>": 39666, "toyo": 7644, "gomes</w>": 39128, "loos</w>": 45723, "beauties</w>": 14874, "?!!</w>": 25342, "yogh": 32626, "und</w>": 9732, "fleeing</w>": 30543, "cairn</w>": 42467, "mandarin</w>": 26455, "neglec": 18827, "ðŁĻıðŁı»": 25100, "camra</w>": 46155, "kpa</w>": 38759, "icelan": 34114, "suffol": 13775, "mydayinla</w>": 42801, "acquisition</w>": 16543, "deans</w>": 46852, "lo": 549, "awan": 48869, "friction</w>": 38563, "compli": 5270, "lefto": 17437, "veteran</w>": 8814, "mcn": 42919, "mellow</w>": 32034, "rothschild</w>": 45089, "seanhannity</w>": 43316, "Įë": 17003, "gers</w>": 3314, "mariska</w>": 44703, "ffles</w>": 19344, "oem</w>": 29650, "âĢĵ</w>": 1224, "galla": 16847, "filament</w>": 49252, "virtuoso</w>": 47027, "lcfc</w>": 25339, "cdo</w>": 47187, "bully</w>": 20190, "flashlight</w>": 37256, "vulture</w>": 34593, "stern": 36254, "babysitting</w>": 34186, "silicon</w>": 17888, "guys</w>": 1791, "cinnam": 12768, "mean</w>": 3450, "skirt</w>": 12386, "infl": 7627, "survivors</w>": 13711, "Ģ</w>": 478, "strolling</w>": 40911, "couldnt</w>": 29042, "tie</w>": 3422, "adjust</w>": 28073, "ilia</w>": 14855, "impact": 33036, "spout</w>": 48993, "italia</w>": 11025, "devastation</w>": 42452, "round</w>": 2522, "diego</w>": 6306, "rogers</w>": 10661, "bizhour</w>": 39462, "swild": 33909, "ãħ¤ãħ¤ãħ¤ãħ¤": 39329, "ft</w>": 981, "alot</w>": 16945, "combat": 35083, "ÃŃ": 8366, "sparky</w>": 47198, "nepal</w>": 10066, "ulous": 42490, "chang</w>": 16461, "nashville": 45356, "must</w>": 2048, "billy</w>": 6814, "snowdon</w>": 47107, "nws": 23333, "dam</w>": 4926, "serverless</w>": 49243, "deter</w>": 47458, "prabhu</w>": 31529, "ðŁĳ©": 18800, "decat": 35334, "vard</w>": 8773, "alexis</w>": 14243, "mcgu": 34294, "wiped</w>": 31822, "satisfy</w>": 29444, "nyu": 43143, "noch</w>": 38672, "relax": 6777, "pti": 29375, "ography</w>": 22399, "ðŁĺŃðŁĺŃ": 5300, "creams</w>": 41447, "seated</w>": 23953, "garner</w>": 20340, "protested</w>": 48089, "youcan": 32498, "theater": 39438, "cucumbers</w>": 48065, "nickelo": 28668, "cabbage</w>": 18407, "registered</w>": 10254, "reservations</w>": 19307, "preps</w>": 14765, "ji": 3252, "paralleled</w>": 42520, "besties</w>": 27346, "available</w>": 1685, "apha</w>": 47104, "centre</w>": 2916, "niall</w>": 8327, "hen</w>": 8047, "pinion</w>": 40557, "dra</w>": 7402, "rb": 12740, "libertarian</w>": 35067, "bis": 5064, "babes</w>": 14253, "emit</w>": 49043, "maz": 9177, "simon</w>": 6668, "lacks</w>": 34388, "tuous</w>": 28738, "interviewing</w>": 16399, "hallmarkchannel</w>": 36840, "atl": 5411, "pd": 4387, "!!)</w>": 28352, "cheltenham</w>": 21589, "transplantation</w>": 45207, "verification</w>": 33521, "comedy</w>": 4749, "jules</w>": 21996, "excellent</w>": 4239, "kawaii</w>": 26891, "yang": 23818, "creole</w>": 45632, "compton</w>": 28364, "ðŁĺĤ": 1424, "copied</w>": 36770, "cunningham</w>": 25321, "tequila</w>": 18510, "vegetarian</w>": 14600, "generative</w>": 29472, "dcu</w>": 42647, "haan</w>": 36284, "ams</w>": 1396, "fellows</w>": 15766, "cessna</w>": 36596, "parlour</w>": 37829, "sweetened</w>": 45577, "marched</w>": 37976, "election</w>": 4247, "serra</w>": 39851, "endorf</w>": 37249, "lal</w>": 19430, "demo": 2930, "cent</w>": 3662, "cavs</w>": 16800, "irregular</w>": 38692, "sleeves</w>": 19691, "graced</w>": 31894, "isp</w>": 39041, "scientist</w>": 11083, "rollover</w>": 39214, "rin": 5859, "ayan": 37781, "à¥Ģ": 45791, "impeccable</w>": 40111, "carmichael</w>": 41657, "fb": 22637, "antrim</w>": 40252, "only</w>": 1033, "usb</w>": 10281, "origins</w>": 16291, "veni</w>": 31142, "ject</w>": 6070, "homec": 33869, "source</w>": 3634, "wo</w>": 11132, "gic</w>": 2570, "srp</w>": 43004, "equal": 17373, "custo": 4376, "fawad": 46425, "canti": 42845, "bh</w>": 13603, "gener": 1832, "warts</w>": 21781, "kaf": 19870, "nero</w>": 29048, "requiem</w>": 40316, "shri</w>": 11424, "vega</w>": 22930, "...........</w>": 35008, "rolltide</w>": 28101, "regard</w>": 21801, "childrens</w>": 21553, "fail": 7105, "setter</w>": 23153, "recyclable</w>": 48907, "odin</w>": 35175, "skincare</w>": 12648, "lle</w>": 29732, "ception</w>": 12346, "study</w>": 3123, "bbe</w>": 37559, "sbs</w>": 18883, "squire</w>": 48090, "ucl</w>": 13647, "mort</w>": 30583, "fel": 2081, "prou": 5739, "vaj": 34206, "wall</w>": 2569, "diplomacy</w>": 23798, "blades</w>": 16893, "yu</w>": 8887, "fz</w>": 46400, "kayo</w>": 37021, "spol</w>": 8132, "visu": 7739, "reef": 46557, "changmin</w>": 47410, "target": 38556, "rard</w>": 21012, "niche</w>": 25279, "komo</w>": 31820, "soar</w>": 22241, "derek": 22461, "traced</w>": 47956, "mississ": 26483, "alpac": 30128, "inner</w>": 6955, "sulphur</w>": 47659, "athe": 8963, "violation</w>": 22919, "feared</w>": 31154, "waited</w>": 18492, "bearers</w>": 47986, "discre": 20616, "ðŁİ¶": 11755, "managerial</w>": 44261, "schedules</w>": 28986, "mobile</w>": 3451, "marquez</w>": 27317, "crowns</w>": 33229, "coil</w>": 25307, "nowwatching</w>": 30852, "familytravel</w>": 38222, "unconditional</w>": 31112, "abdel": 46511, "stanbul</w>": 11231, "boy": 2927, "umm</w>": 21215, "serena</w>": 19519, "swire</w>": 42753, "rae</w>": 15051, "ingredient</w>": 19799, "guterres</w>": 48738, "manutd</w>": 20994, "chÃ¢": 48669, "stal": 3861, "consuming</w>": 30607, "Â": 126, "aishwarya</w>": 44019, "huron</w>": 36147, "arez</w>": 13108, "atp": 38105, "marg</w>": 44014, "ðŁļ¨</w>": 6056, "worldo": 41698, "russ</w>": 20764, "liked</w>": 7112, "somalia</w>": 17051, "aked</w>": 6115, "hilltop</w>": 45858, "obamacare</w>": 18005, "cradle</w>": 29384, "cripp": 33588, "gypsy</w>": 22354, "bibi</w>": 31182, "prevail</w>": 31637, "vmas</w>": 30236, "dige": 17820, "guangzhou</w>": 37857, "deca</w>": 33428, "alden</w>": 27710, "gunsn": 49028, "shakespeare": 22499, "warlock</w>": 42455, "carte</w>": 44949, "audible</w>": 33227, "ÙĦ</w>": 37899, "transgender</w>": 17732, "polio</w>": 30533, "cycli": 12201, "glou": 15989, "íĬ": 23215, "lovecraft</w>": 42405, "expat</w>": 43900, "interrupted</w>": 30288, "solace</w>": 42567, "nikki</w>": 16689, "posts</w>": 7824, "clevel": 7701, "jackson": 12321, "anthropo": 18538, "stared</w>": 47772, "ukulele</w>": 39094, "wedd": 7576, "focus</w>": 4353, "rookies</w>": 31917, "ttm</w>": 46838, "univ</w>": 14896, "smooth": 10958, "lincol": 6239, "peac": 34615, "pbb": 48567, "vincent": 29069, "willing</w>": 11718, "carrera</w>": 32952, "anil": 28589, "ashish</w>": 33145, "motion": 32139, "euph": 21386, "9": 24, "manson</w>": 26715, "orphans</w>": 36588, "rage</w>": 8593, "pontifex</w>": 33566, "manufactured</w>": 24010, "namo": 46013, "innovators</w>": 27834, "opho": 12900, "courtesy</w>": 5228, "snapping</w>": 31581, "ę": 213, "experiences</w>": 8233, "sh</w>": 849, "initials</w>": 48794, "ðŁĩ¯ðŁĩµ</w>": 26527, "strain</w>": 16887, "happymothersday</w>": 42425, "j</w>": 329, "narrowly</w>": 29747, "coupe</w>": 16773, "tab</w>": 14724, "shared</w>": 5368, "lup</w>": 27413, "ayama</w>": 41194, "prolific</w>": 27839, "byrne</w>": 19676, "balance</w>": 6827, "jerome</w>": 19876, "kerry": 24795, "fron</w>": 18036, "slinger</w>": 47269, "ton": 838, "dhanush": 26162, "articles</w>": 11939, "cocac": 26393, "outlook</w>": 12983, "bookof": 45629, "nationalism</w>": 29867, "realizing</w>": 23284, "scape</w>": 12314, "confusing</w>": 24683, "ssal</w>": 35936, "listen": 17454, "ðŁĺĥ</w>": 8520, "skeletal</w>": 37369, "speaker": 25764, "possibilities</w>": 17932, "bub": 27704, "hipp": 13607, "macmillan</w>": 35191, "zam</w>": 41578, "whistleblower</w>": 40410, "regency</w>": 29341, "request</w>": 7813, "pedia</w>": 11733, "gz": 45937, "aesthetics</w>": 29295, "slabs</w>": 42818, "ciliation</w>": 25294, "fash": 42682, "luxe</w>": 26373, "columbus</w>": 11273, "goe": 22084, "ounds</w>": 2753, "anj": 22443, "ambul": 13944, "tuna</w>": 15037, "griffiths</w>": 34182, "hello</w>": 3306, "gly": 13027, "defen": 3619, "gifted</w>": 15110, "sydney": 15878, "kanye": 29680, "linguistic</w>": 46847, "prevalence</w>": 41729, "forbe": 49098, "daft</w>": 36347, "kareem</w>": 38885, "hina</w>": 40571, "drown</w>": 28571, "director</w>": 2681, "literary</w>": 13586, "born</w>": 2683, "parental</w>": 28339, "pickled</w>": 21705, "spider</w>": 7622, "lucky": 20495, "typic": 21648, "wfc</w>": 36431, "postdoc</w>": 41013, "vargas</w>": 32752, "asheville</w>": 28897, "scoun": 16110, "alice</w>": 9192, "tracy</w>": 15508, "perez</w>": 15107, "explosion</w>": 13785, "cevic": 48369, "myr": 20272, "corp</w>": 10918, "rwand": 31758, "lolz</w>": 35260, "guillaume</w>": 45394, "escap": 11499, "rva</w>": 24278, "philippine</w>": 17629, "cos": 5865, "achs</w>": 41195, "hurrican": 36105, "sponsor": 10424, "envision</w>": 49031, "weil</w>": 43720, "dmit": 31607, "greyhound</w>": 27363, "thour</w>": 27125, "ia": 12486, "jeremycorbyn</w>": 37484, "ðŁĮ¸ðŁĮ¸": 46210, "grassi</w>": 42294, "fication</w>": 4523, "healthyeating</w>": 33761, "zay": 7102, "hern": 30571, "transpl": 16038, "divorce</w>": 17060, "yearsof": 14932, "Ãł": 36149, "umb": 7493, "president</w>": 1940, "hahahahahahaha</w>": 43653, "mohan": 26521, "kswx</w>": 36180, "shers</w>": 14141, "ðŁįį</w>": 48946, "spell": 22784, "compare</w>": 13771, "kab": 6554, "thou": 1513, "malik</w>": 11394, "fillers</w>": 45005, "avalan": 23970, "thood</w>": 15623, "branding</w>": 10841, "welterweight</w>": 39617, "mizz": 19985, "ada": 25785, "yeah</w>": 3908, "sooners</w>": 30449, "javed</w>": 42268, "oxy": 12432, "destruction</w>": 14281, "planet</w>": 5172, "whom</w>": 12873, "piracy</w>": 39452, "ppings</w>": 35687, "webdesign</w>": 20470, "prem</w>": 21724, "stabbed</w>": 24534, "rinka</w>": 47316, "delivery</w>": 5619, "maniac</w>": 31814, "lok</w>": 23575, "urine</w>": 28864, "today</w>": 721, "laser</w>": 9885, "gamersunite</w>": 26423, "newton</w>": 12606, "sance</w>": 15930, "argyle</w>": 36179, "embassy</w>": 13598, "emen</w>": 22033, "unfortunately</w>": 12863, "swa</w>": 31916, "workout</w>": 6773, "wcc</w>": 34926, "joyeux</w>": 41876, "propaganda</w>": 14718, "hoop</w>": 19573, "rics</w>": 7353, "enthr": 36202, "afford</w>": 13223, "tribunal</w>": 32911, "ggles</w>": 14703, "otter</w>": 22456, "hawaii</w>": 8265, "boone</w>": 23453, "Z": 57, "thereal": 8074, "acar": 22232, "celeb</w>": 19393, "tops</w>": 8154, "sink": 37232, "harassment</w>": 16641, "barri": 8660, "opa</w>": 28949, "stump</w>": 32064, "dae</w>": 15422, "mism</w>": 15948, "stam": 4663, "chro": 13207, "ë¯": 19528, "rel": 1825, "oooo": 4002, "more</w>": 750, "ziel</w>": 32151, "nig</w>": 28099, "ć</w>": 451, "ffed</w>": 8448, "root</w>": 9728, "teasers</w>": 48990, "aggressive</w>": 16295, "discovery</w>": 8027, "saka</w>": 33609, "fayre</w>": 34982, "buffy</w>": 33356, "carvings</w>": 48123, "luciano</w>": 46365, "mortgages</w>": 45391, "selfi": 3007, "gotti</w>": 41881, "cure": 36758, "falls</w>": 4778, "methods</w>": 12200, "waffle</w>": 20375, "longer</w>": 5349, "ìĿ´": 12286, "equip": 6526, "struggle</w>": 8443, "bamboo</w>": 16748, "à¸²à¸": 12330, "ultr": 25636, "nasdaq</w>": 26629, "mae": 16898, "hamid</w>": 32377, "bli": 1450, "kha": 7333, "monuments</w>": 26916, "chicag": 16778, "minneapolis</w>": 16977, "psb</w>": 37017, "lob</w>": 46606, "nine</w>": 7330, "bha": 6144, "outh</w>": 8111, "trust": 17691, "ers": 4840, "thee</w>": 15108, ":::</w>": 43818, "richard": 9080, "ies": 27912, "rela": 4362, "haun": 9676, "moody</w>": 17170, "sprinkles</w>": 37326, "shaun</w>": 16669, "tek": 17489, "sunk</w>": 37534, "forest</w>": 4167, "notorious</w>": 22489, "assassination</w>": 24907, "vaz": 38142, "harmon</w>": 28729, "kes</w>": 1115, "desh": 25320, "stino</w>": 40658, "harp</w>": 27339, "brid": 16995, "norte</w>": 35638, "carameli": 41739, "ebook</w>": 13122, "insp": 1597, "cursed</w>": 26408, "didyou": 12295, "remove</w>": 9709, "controls</w>": 15746, "montp": 39523, "wrestling</w>": 5904, "atu": 15191, "oktoberfest</w>": 32026, "wart</w>": 7346, "rob": 2668, "purdue</w>": 22280, "loway</w>": 16104, "capu": 44241, "gup": 38632, "shy</w>": 9682, "ðŁĴ«</w>": 12526, "strung</w>": 46033, "starbuck": 48519, "borussia</w>": 36764, "éĩ": 38283, "bagged</w>": 34047, "dominant</w>": 20565, "seemingly</w>": 25917, "pyrene": 36740, "ðŁĴ¨": 27408, "slipped</w>": 30344, "jerry</w>": 9164, "fertile</w>": 44837, "accumulation</w>": 37112, "hacks</w>": 19965, "agri</w>": 30326, "strengthening</w>": 23475, "campus</w>": 4560, "females</w>": 21028, "rule": 31643, "function</w>": 8093, "priyankach": 30030, "esof": 17047, "went": 18633, "joey</w>": 10455, "ide</w>": 14104, "markle</w>": 32672, "avon": 22790, "alma</w>": 18337, "taehyung</w>": 24642, "mara</w>": 15655, "mlg</w>": 45801, "stocki": 42944, "travelblogger</w>": 25494, "gud": 48061, "coll": 25982, "garry</w>": 24398, "payment</w>": 10596, "peninsu": 13464, "leed": 16483, "tents</w>": 30730, "naik</w>": 34424, "mind</w>": 2575, "pit</w>": 7476, "handed</w>": 10881, "dummies</w>": 40899, "yogur": 16137, "ulation</w>": 32896, "homes": 19480, "nsf</w>": 34180, "ite": 2732, "birthplace</w>": 31429, "vancou": 6750, "homophobic</w>": 40975, "astic</w>": 15876, "shame</w>": 7593, "calcu": 15328, "charcoal</w>": 19268, "wood": 3269, "constructed</w>": 16876, "cek</w>": 45544, "guitar</w>": 5084, "garments</w>": 43341, "houn": 39273, "worn</w>": 9037, "blogpost</w>": 41842, "divi": 8375, "ovation</w>": 24333, "nx</w>": 16997, "bil": 3092, "ðŁ¥ĩ": 34372, "preet</w>": 30131, "lovefl</w>": 38884, ")": 8, "dressed</w>": 6559, "britt": 10811, "smil": 33937, "sauna</w>": 35460, "orange": 13957, "safe": 2901, "team": 2085, "donnie</w>": 30609, "lusci": 38004, "lucid</w>": 44540, "andy": 9447, "perseverance</w>": 29820, "abz</w>": 42292, "opathy</w>": 28466, "kits</w>": 13730, "stuns</w>": 43796, "dvr</w>": 29210, "figu": 6390, "yasss</w>": 23873, "vikas</w>": 37116, "ðŁİŃ</w>": 28856, "founded</w>": 12240, "thursdaythoughts</w>": 14866, "ðŁ¤ĺðŁı¼</w>": 31458, "conversations</w>": 12326, "irresistible</w>": 35252, "leslie</w>": 16244, "northern</w>": 5049, "sparkle</w>": 18287, "iors</w>": 6427, "scat": 13899, "nielsen</w>": 28372, "col": 754, "indiegame</w>": 17969, "recognizes</w>": 26909, "tories</w>": 14193, "sufficient</w>": 28410, "inged</w>": 30046, "stoday</w>": 22392, "psalm</w>": 17995, "gts</w>": 37338, "trose</w>": 36022, "button</w>": 8007, "cheese</w>": 4108, "aniston</w>": 47344, "inda</w>": 15710, "!\"@</w>": 43819, "ishqba": 32503, "historical</w>": 8039, "row</w>": 1044, "acon": 11621, "harm": 16656, "florida</w>": 3966, "à¤¤</w>": 27263, "planes</w>": 12581, "asl</w>": 41650, "mmj</w>": 43015, "fg</w>": 6823, "macon</w>": 35818, "goodness</w>": 10531, "skittles</w>": 43213, "dishwasher</w>": 40524, "bump": 9783, "fact": 17189, "lazar": 33075, ":'(</w>": 21250, "aids</w>": 11759, "hazel</w>": 21882, "mmc</w>": 44253, "clau": 7526, "craigslist</w>": 43865, "vore</w>": 18215, "vist</w>": 21436, "recital</w>": 23457, "akis</w>": 27732, "buddhist</w>": 18697, "hunted</w>": 37373, "gerard</w>": 20826, "olan": 48489, "hinds</w>": 47859, "reported</w>": 7598, "hebdo</w>": 41817, "wego": 44784, "sheriff</w>": 10309, "food": 4586, "discounts</w>": 18186, "seine</w>": 41378, "ðŁ¤ĹðŁ¤Ĺ</w>": 44321, "allenge</w>": 31387, "shawn": 16677, "mapleleafs</w>": 41257, "kali</w>": 26964, "muay": 44910, "veggies</w>": 16767, "modification</w>": 37630, "teaches</w>": 17110, "late": 13267, "novascotia</w>": 34744, "varian</w>": 34334, "thunderstorms</w>": 19525, "=</w>": 284, "aliaa</w>": 36468, "aspect</w>": 19681, "tacular</w>": 48985, "deadline</w>": 8458, "feb</w>": 4317, "Ù</w>": 405, "banan": 38410, "radi": 5772, "core": 19622, "...@</w>": 12672, "scholarship</w>": 9070, "abou</w>": 44053, "xox": 11531, "fortunate</w>": 19898, "mrs</w>": 4255, "chag": 27989, "deliver</w>": 7396, "seri": 2763, "macaroni</w>": 41824, "honesty</w>": 24939, "email</w>": 4462, "hokkaido</w>": 49145, "mcgr": 25169, "woah</w>": 17751, "suite</w>": 9346, "oppor": 2914, "herrera</w>": 27755, "eviction</w>": 37111, "accord</w>": 28513, "frazier</w>": 32841, "worm</w>": 10945, "podcasting</w>": 40106, "marmalade</w>": 39068, "stitching</w>": 45208, "sainsburys</w>": 36934, "omon": 48758, "idge</w>": 35567, "alhamdulil": 35129, "kern</w>": 40150, "spanish</w>": 6013, "squared</w>": 32967, "fresh</w>": 2975, "naples</w>": 23560, "asen": 41085, "aubre": 25899, "atie</w>": 30137, "parliament": 41599, "mitting</w>": 27938, "locust</w>": 46237, "deli": 1932, "ðŁĺĺâĿ¤ï¸ı</w>": 39150, "Â»</w>": 7599, "lifeis": 24824, "inhe": 32617, "christoph</w>": 47844, "sece": 46297, "astros</w>": 17598, "epilo": 31291, "ather": 6171, "ited": 8603, "sponsoring</w>": 16181, "monthly</w>": 8764, "athletic": 33182, "larson</w>": 27973, "sasha</w>": 20894, "hulu</w>": 24666, "peruvian</w>": 30822, "organized</w>": 10681, "Ĭ</w>": 488, "islamabad</w>": 19959, "telegram</w>": 26780, "boyce</w>": 44480, "bps</w>": 37794, "allegi": 28832, "boss": 17935, "chment</w>": 20848, "hanna</w>": 10075, "opposing</w>": 24376, "bald": 11153, "(Â£</w>": 33987, "sadiq</w>": 44107, "ronan</w>": 34971, "federer</w>": 18246, "surabaya</w>": 45227, "esk": 19359, "godly</w>": 42438, "lever</w>": 23094, "grail</w>": 37184, "mathew</w>": 36333, "mead</w>": 21567, "supportsmallstreamers</w>": 36097, "tzman</w>": 46032, "esp</w>": 13870, "primary": 35024, "anci": 4192, "agan": 42946, "photooftheday</w>": 11933, "aml</w>": 43185, "stau": 28550, "concre": 43658, "diversity</w>": 6257, "piercing</w>": 22557, "nagar</w>": 17490, "oured</w>": 6956, "taz</w>": 31870, "lbs</w>": 8912, "ike</w>": 19696, "owo</w>": 46142, "summertime</w>": 19025, "sorta</w>": 34700, "ppel</w>": 46523, "searched</w>": 28961, "robot": 46089, "yb</w>": 27615, "shouldn</w>": 9416, "handbag</w>": 22654, "tainted</w>": 47211, "amphibious</w>": 45206, "dayof": 16272, "racial</w>": 13801, "nak": 9248, "spil": 47765, "inema</w>": 29232, "wwii</w>": 10261, "victim</w>": 9133, "complic": 11460, "jeremiah</w>": 27301, "minutes</w>": 3056, "jd</w>": 14125, "analogue</w>": 46031, "neighboring</w>": 44754, "nickimin": 27390, "womanc": 35630, "missuni": 26347, "lilies</w>": 38110, "musicians</w>": 12498, "ðŁİĢ</w>": 20151, "ibd</w>": 40732, "alit": 45566, "mukher": 34575, "relays</w>": 28404, "dwar": 13487, "fuelled</w>": 48357, "ich": 5333, "proto</w>": 44958, "bazaar</w>": 20070, "slapped</w>": 38861, "dreamteam</w>": 40090, "austerity</w>": 26982, "addictive</w>": 29638, "shorts</w>": 9680, "auditions</w>": 21134, "mcgin": 29596, "allie</w>": 25040, "bess</w>": 43791, "steph": 3522, "nesses</w>": 20107, "fares</w>": 27525, "tmnt</w>": 32444, "arrogant</w>": 40582, "avut</w>": 44472, "calendar</w>": 7122, "boehner</w>": 44599, "pln</w>": 48755, "sidd": 19842, "ðŁĺĨ": 16541, "cites</w>": 34490, "giftideas</w>": 23487, "son": 1176, "sublime</w>": 22367, "humpday</w>": 27693, "arrest</w>": 9320, "gear": 15532, "tern</w>": 12959, "balli": 29406, "paddle</w>": 20811, "card": 10793, "fulfill</w>": 27467, "retina</w>": 36919, "called</w>": 2726, "thewalkingdead</w>": 18087, "onf</w>": 41790, "parachute</w>": 30122, "ity": 2480, "deserved</w>": 10061, "à¸ŀ</w>": 48171, "ney": 3857, "advisers</w>": 40984, "screamed</w>": 35427, "yog": 34985, "coastline</w>": 27959, "mbo</w>": 11319, "alla": 13884, "tarak</w>": 37813, "lib</w>": 13345, "igers": 40755, "stel": 9102, "ðŁ¤¦": 17186, "rosenberg</w>": 43558, "concepcion</w>": 47035, "obstruc": 38762, "sommer</w>": 44954, "freely</w>": 24436, "tein</w>": 33223, "ili</w>": 19601, "puertorico</w>": 26356, "fresno": 40879, "lucci</w>": 45849, "luc</w>": 28014, "bottled</w>": 29331, "jewish": 29594, "brush": 27969, "walks</w>": 8192, "prison</w>": 6622, "rotherham</w>": 37687, "dra": 1114, "ater": 18597, "dir</w>": 8478, "collin</w>": 32116, "âĿĦï¸ıâĿĦï¸ı": 41626, "increased</w>": 9156, "turbulent</w>": 47871, "strictly</w>": 16475, "lowry</w>": 27444, "morals</w>": 46223, "walt": 23535, "whisky": 37567, "asin": 48432, "weird</w>": 5613, "rien</w>": 35237, "serenawilliams</w>": 48316, "semis</w>": 24013, "flood": 23793, "deman</w>": 48366, "mccor": 23057, "saku": 37550, "wit": 584, "...!!!</w>": 38351, "crest": 35985, "dayton</w>": 20262, "barry</w>": 8461, "implant</w>": 33106, "vitam": 9856, "governors</w>": 26881, "harris": 25356, "bays</w>": 40156, "mich": 25628, "thei": 44522, "ellison</w>": 32295, "harvey": 33289, "cents</w>": 11934, "ten": 1149, "wcs</w>": 39916, "td</w>": 3192, "brad</w>": 9405, "steering</w>": 19833, "msd": 25804, "cul": 1877, "spill": 43933, "bac</w>": 25867, "distance</w>": 7964, "styles</w>": 6948, "pastor</w>": 9664, "azure</w>": 18514, "eliot</w>": 33326, "spacex</w>": 22511, "training": 34508, "bruised</w>": 46502, "sofia</w>": 18914, "aust</w>": 25418, "mete": 11226, "raf</w>": 11490, "__</w>": 3838, "yum": 6869, "provider</w>": 14409, "antal": 39355, "goodyear</w>": 42858, "shau": 13750, "finance</w>": 6117, "mtv</w>": 12555, "collapses</w>": 43601, "easter": 14783, "plun": 15122, "enzymes</w>": 47465, "presses</w>": 33748, "mors</w>": 13064, "jed</w>": 38748, "invasi": 38100, "mln</w>": 18971, "aaj</w>": 43411, "wheat</w>": 10303, "youths</w>": 23614, "wof": 45671, "teaser</w>": 8982, "concepts</w>": 16763, "worldwide</w>": 6214, "autumn</w>": 6110, "koo": 12225, "hawa</w>": 46278, "cious</w>": 38466, "extraction</w>": 28789, "reck": 11715, "immun": 8961, "beij": 11547, "todd</w>": 9951, "bibli": 23465, "trusts</w>": 27507, "undoubtedly</w>": 42204, "ðŁĶ¥ðŁĶĹ</w>": 35130, "whit</w>": 31498, "ãĢĲ</w>": 12534, "ulo": 46084, "jk</w>": 9702, "punks</w>": 47171, "nashville</w>": 8585, "devops</w>": 21504, "twentyonepilots</w>": 40007, "bribery</w>": 41792, "robin</w>": 7988, "baddest</w>": 38112, "additi": 26927, "sports</w>": 2054, "nad</w>": 43928, "mourn</w>": 33592, "westbrook</w>": 26948, "trope</w>": 41150, "unleash</w>": 26706, "homebrew</w>": 35046, "accordingly</w>": 35535, "ios</w>": 6614, "send</w>": 3625, "altitude</w>": 23241, "trajec": 42042, "dios</w>": 37563, "triumph</w>": 15307, "olin</w>": 18283, "forestry</w>": 26281, "niels</w>": 37154, "blacklivesmatter</w>": 23467, "oll</w>": 15510, "kare": 14310, "po</w>": 3057, "ez</w>": 8387, "skid</w>": 32099, "girlfriends</w>": 30736, "schwarzenegger</w>": 33860, "sparked</w>": 32647, "suitable</w>": 17476, "auckland</w>": 16072, "printable</w>": 29648, "campbell": 29094, "isner</w>": 48246, "elfie</w>": 39955, "tow": 11557, "flames</w>": 13441, "bred</w>": 16008, "yn</w>": 4100, "!!!</w>": 995, "distances</w>": 37078, "clc</w>": 31380, "jubilee</w>": 16907, "lasalle</w>": 43866, "bino</w>": 24313, "enhance</w>": 13993, "woody</w>": 17144, "warner</w>": 13402, "toile": 43148, "constant": 32000, "grove": 31756, "tiles</w>": 10607, "drum</w>": 8698, "norfolk</w>": 12202, "compu": 11639, "settlements</w>": 36605, "litter</w>": 17118, "rainier</w>": 37850, "chapman</w>": 17968, "censor</w>": 44709, "inez</w>": 12700, "tunnels</w>": 29814, "ront</w>": 48881, "suke</w>": 25590, "unemployment</w>": 19350, "litur": 36830, "jeon": 45200, "nnn</w>": 26277, "edo</w>": 18096, "impala</w>": 36641, "answer</w>": 4518, "bulldog</w>": 15611, "billie</w>": 23990, "leon</w>": 9763, "ridg": 42646, "flickr</w>": 17755, "flowing</w>": 14922, "around": 35615, "genetics</w>": 18276, "rub": 15862, "nut": 10358, "promoting</w>": 9695, "optional</w>": 25411, "blake</w>": 9579, "zig": 15950, "wi</w>": 5585, "damp</w>": 26520, "singapore": 28879, "implications</w>": 19229, "suffolk</w>": 15685, "tighten</w>": 46653, "repeats</w>": 39158, "cutlery</w>": 49073, "critic</w>": 19361, "htc</w>": 17635, "isaac": 37544, "greet</w>": 11997, "otic</w>": 9671, "control": 9963, "businessman</w>": 25635, "taxpayer</w>": 30978, "lamb</w>": 10034, "latt": 33561, "protocol</w>": 19938, "areth</w>": 47725, "contagious</w>": 33984, "morton</w>": 20698, "neh</w>": 41697, "clusters</w>": 33217, "thalaivar</w>": 44918, "tariffs</w>": 28335, "eviden": 46220, "monitoring</w>": 11030, "drawing</w>": 3610, "oz</w>": 6044, "witcher</w>": 33684, "agov</w>": 34227, "ohiostate</w>": 41324, "seva</w>": 42604, "password</w>": 20258, "shear": 27974, "rang</w>": 24377, "sm": 978, "fff</w>": 28106, "ady</w>": 8781, "lago": 42698, "atop</w>": 17455, "âłĢâłĢ": 11466, "florence</w>": 11617, "wr": 1189, "ior</w>": 2498, "barnsley</w>": 32153, "obsole": 35561, "lakota</w>": 45510, "cheating</w>": 19722, "ðŁĮĬ": 20465, "alle": 4870, "johanna</w>": 41494, "assurance</w>": 28408, "bolton": 48757, "ail": 1457, "paypal</w>": 21442, "trude</w>": 39017, "populations</w>": 23797, "budge": 32005, "dedly</w>": 36204, "iran</w>": 5075, "walled</w>": 36567, "sharp</w>": 8157, "thevoice</w>": 30258, "ol</w>": 2985, "pants</w>": 5003, "bernade": 46242, "Ð¿ÑĢÐ¸ÑĢÐ¾Ð´Ð°</w>": 48150, "bernardo</w>": 28696, "projects</w>": 5090, "blo</w>": 25505, "seabir": 42558, "pony": 24438, "mgs</w>": 48073, "foamed</w>": 26711, "champ</w>": 6602, "chas": 10717, "nessy</w>": 32939, "grade": 45435, "eae</w>": 27446, "concrete</w>": 9637, "hibiscus</w>": 36460, "hic</w>": 38079, "wristband</w>": 36890, "glove</w>": 16078, "astounding</w>": 37748, "hairstyle</w>": 22324, "ldn": 37050, "uncharted</w>": 34560, "smoo": 5430, "nme</w>": 40454, "travelled</w>": 23428, "fiends</w>": 37869, "kindergarten</w>": 16749, "led</w>": 912, "confused</w>": 10946, "richardson</w>": 15984, "ðŁĸ¤": 17603, "aussie": 40230, "fda</w>": 17823, "scare": 33536, "cbc</w>": 14523, "brant": 28951, "lets": 10448, "uptown</w>": 23807, "lections</w>": 30995, "translation</w>": 12153, "baskets</w>": 27787, "rebel</w>": 12248, "heavens</w>": 26026, "onte</w>": 34723, "whispe": 30356, "indv": 16942, "william": 8420, "scro": 30768, "ophy": 28539, "sparks</w>": 15046, "intuition</w>": 40897, "edison</w>": 25846, "armada</w>": 34938, "âĻ¥ï¸ıâĻ¥ï¸ı": 40309, "entries</w>": 13766, "rockford</w>": 41039, "oilpainting</w>": 34279, "flax</w>": 43443, "shahid</w>": 27138, "jul": 34662, "byes</w>": 47958, "teatro</w>": 35756, "traverse</w>": 35058, "obligatory</w>": 35020, "bott</w>": 37225, "neal": 33652, "ĮãĤĬãģ": 45969, "mente</w>": 36396, "ancy": 16282, "oon</w>": 7100, "ì¶": 42476, "liveli": 26566, "rukh</w>": 27631, "yi": 5826, "bund</w>": 41905, "bursts</w>": 37026, "mored</w>": 20195, "reaching</w>": 11358, "demanded</w>": 33699, "paper</w>": 2802, "bone": 22502, "expand</w>": 13141, "people</w>": 1047, "sturdy</w>": 43780, "gating</w>": 27561, "samanthap": 38266, "menon</w>": 38255, "disinfe": 48050, "ðŁ¤ŀ</w>": 38597, "stores</w>": 6370, "downtime</w>": 41964, "grandpa</w>": 14582, "thia</w>": 17943, "efficacy</w>": 39937, "yÃ¼": 48232, "displac": 17718, "neil</w>": 8030, "everton</w>": 13315, "mga</w>": 23954, "cinematography</w>": 33802, "aleppo</w>": 19258, "ðŁ§Ĳ</w>": 33549, "dhan</w>": 28569, "rancho</w>": 26258, "sensational</w>": 23051, "smiling</w>": 9200, "bbq</w>": 6726, "appetite</w>": 24481, "liners</w>": 24463, "mercur": 11471, "venue</w>": 5097, "fortnite": 38734, "wild": 2780, "prox": 41616, "dden</w>": 5013, "ehealth</w>": 48617, "dunn</w>": 19185, "accordion</w>": 48760, "widespread</w>": 21258, "hop": 10848, "cols</w>": 35726, "touch</w>": 4526, "suspect</w>": 9065, "garfield</w>": 26728, "osh</w>": 35011, "aor": 32044, "cd": 4308, "potential</w>": 5100, "whiskey": 41381, "ðŁįŃ</w>": 42100, "miami</w>": 4891, "transitional</w>": 41519, "realised</w>": 17945, "leah</w>": 19308, "bona</w>": 33342, "louise</w>": 13076, "catwoman</w>": 47251, "guru</w>": 10800, "terrace</w>": 13820, "atown</w>": 24000, "jones</w>": 3538, "explosions</w>": 38646, "mcdermott</w>": 34504, "woodlands</w>": 32430, "iner": 17438, "ccl</w>": 43773, "ound": 2013, "supervisor</w>": 20366, "duras</w>": 27518, "muh": 36335, "men</w>": 1656, "alone</w>": 4702, "scue</w>": 25955, "bronson</w>": 37042, "imv": 35731, "yester": 1905, "ramsay</w>": 26259, "extreme": 38357, "scen": 2204, "ultrasound</w>": 29717, "dry</w>": 4501, "hon</w>": 10296, "apeu": 19040, "dandy</w>": 31932, "harvest": 44495, "appleton</w>": 45250, "lucy": 17262, "euref</w>": 48017, "healey</w>": 38985, "bravery</w>": 25831, "chicagofire</w>": 46576, "contest</w>": 4576, "hunter": 16531, "paul</w>": 2597, "ww</w>": 4491, "vedere</w>": 45660, "premium</w>": 8011, "amphitheatre</w>": 44039, "simmons</w>": 14699, "zen": 8518, "gior": 14920, "footprints</w>": 39640, "ipsw": 22221, "amendment</w>": 15019, "promethe": 44183, "arios</w>": 25392, "maria</w>": 6595, "innis": 44059, "vertical</w>": 14293, "destroy</w>": 11930, "rainf": 15024, "scowboys</w>": 31386, "nell</w>": 8117, "bhafc</w>": 30779, "lucky</w>": 4133, "appearance</w>": 7238, "antelope</w>": 39177, "turbo": 23578, "bilingual</w>": 29623, "aptly</w>": 47313, "âĿ¤ï¸ı@</w>": 31187, "looo": 20902, "knitting</w>": 18863, "papp": 26361, "hudder": 22629, "chairman</w>": 6901, "scp</w>": 45030, "jake": 13140, "sphoto</w>": 38594, "monitored</w>": 45828, "instapic</w>": 34378, "fue</w>": 43723, "annoy</w>": 45138, "shout": 7335, "kre": 8362, "ctor</w>": 8108, "architects</w>": 13290, "cupid</w>": 34885, "agger": 27836, "agra</w>": 29830, "ðŁįĬ": 35001, "fashioned</w>": 21563, "uprising</w>": 26006, "bigre": 36330, "encouraging</w>": 15875, "mechanic</w>": 24582, "smg</w>": 46876, "hard": 3312, "lynch": 31586, ",,,,</w>": 33225, "dsa</w>": 47607, "sea": 5970, "multin": 38996, "kapp": 36717, "itch</w>": 8147, "iceland</w>": 11935, "africans</w>": 26534, "furn": 21348, "ael</w>": 43340, "tig</w>": 31999, "destruc": 22945, "cane</w>": 14716, "iya</w>": 18595, "fig": 4814, "laus</w>": 28111, "scru": 7589, "karachi</w>": 13671, "photogenic</w>": 36108, "poul": 22485, "challenging</w>": 11754, "sethu": 38933, "sox</w>": 8657, "wea</w>": 47301, "gustav</w>": 37921, "wati</w>": 27966, "abu": 9167, "enew": 29672, "doom</w>": 14344, "emanuel</w>": 35232, "slan</w>": 47193, "auc": 24489, "lonelyplanet</w>": 44984, "assassin</w>": 20029, "cup": 5059, "bo": 647, "lif": 16456, "ssi": 834, "reusable</w>": 30395, "ðŁĴİ": 25938, "maldives</w>": 16795, "elimination</w>": 24176, "amusic</w>": 20266, "cbd</w>": 13176, "amid": 18908, "caregiver</w>": 46372, "diaspora</w>": 28390, "ashley</w>": 8957, "bicycle</w>": 11652, "doctorate</w>": 39134, "eruption</w>": 33705, "ohn</w>": 48043, "**</w>": 4441, "gujar": 12698, "youre</w>": 19695, "through": 6091, "theological</w>": 41162, "dna</w>": 8790, "contrary</w>": 32805, "journos</w>": 46437, "surro": 47499, "tutor</w>": 27858, "meyers</w>": 32326, "gust</w>": 24629, "rie": 14824, "mester</w>": 47349, "eck": 25866, "pauls</w>": 40010, "jenna</w>": 17125, "aber</w>": 41867, "master</w>": 3498, "tack": 6339, "brisbane": 42932, "atively</w>": 11929, "cio</w>": 9954, "fever</w>": 9989, "barnett</w>": 27650, "armen": 13145, "tearful</w>": 46873, "teamsisd</w>": 34703, "fac</w>": 35438, "coo": 1664, "dilig": 30664, "spel": 41887, "meant</w>": 8674, "orah</w>": 40820, "insulting</w>": 39646, "bursting</w>": 32566, "salmankhan</w>": 15177, "suzanne</w>": 24617, "wait": 10021, "ugliest</w>": 43543, "kickstarter</w>": 13228, "cathe": 7174, "avan</w>": 33351, "challenged</w>": 17380, "cassette</w>": 19717, "scotty": 39697, "mads</w>": 41201, "picking</w>": 9545, "sieg": 49203, "earthday</w>": 19481, "padma</w>": 46457, "vaw</w>": 47952, "catday</w>": 32243, "alumni</w>": 6646, "Ã£": 19339, "hurts</w>": 13059, "aluminum</w>": 15251, "shee</w>": 34321, "succul": 25671, "met</w>": 2340, "\",</w>": 4332, "marsha</w>": 21491, "paycheck</w>": 45078, "asaki</w>": 22455, "pride": 15323, "bots</w>": 13721, "ply</w>": 28705, "ures</w>": 2288, "woman": 15716, "memorable</w>": 13172, "ksh</w>": 36594, "ero": 3211, "cache</w>": 28993, ":âĢ¦</w>": 22365, "sirloin</w>": 46828, "cosmo</w>": 32072, "polymer</w>": 29993, "plin</w>": 32335, "drupal</w>": 46481, "drew": 18792, "serving</w>": 5722, "starcraft</w>": 48871, "transfer": 22659, "view</w>": 1093, "gette</w>": 29800, "brune": 29057, "itsme": 41125, "attorneys</w>": 29113, "af": 702, "chem": 5667, "rodri": 11053, "argon": 40737, "tasmanian</w>": 45102, "earnings</w>": 15912, "mississi": 11687, "marshmal": 21069, "iam": 3579, "fleet</w>": 9147, "pro": 644, "playlists</w>": 47183, "solar</w>": 5199, "alternati": 16699, "tual</w>": 4799, "fixed</w>": 9393, "stasy</w>": 45942, "credenti": 29487, "dialysis</w>": 44798, "insan": 7875, "themovie</w>": 27062, "gent</w>": 7139, "crows</w>": 27134, "bluec": 43194, "korean": 31949, "johnstone</w>": 40766, "coscino</w>": 47909, "ðŁĩ¨ðŁĩ¦</w>": 16364, "à®Ł</w>": 45263, "Ã¥": 23176, "saber": 46822, "dcfc</w>": 35526, "periodic</w>": 36476, "contain</w>": 15187, "harder</w>": 12274, "generator</w>": 19399, "cinema</w>": 6443, "gutter</w>": 40537, "asana</w>": 42363, "whittaker</w>": 47595, "burlesque</w>": 33732, "friend</w>": 1625, "novelist</w>": 27314, "straight": 22114, "ó": 175, "virgini": 43426, "tail</w>": 4132, "well": 3277, "brun": 6870, "coin": 14651, "halla</w>": 29569, "slur": 30476, "maharaj</w>": 38488, "stored</w>": 28257, "way": 3079, "ittle</w>": 21366, "ðŁĵĿ:</w>": 48398, "convertible</w>": 19608, "decided</w>": 4939, "boe</w>": 21773, "//</w>": 3502, "ðŁĳĪ</w>": 20832, "earning</w>": 14550, "sang": 13235, "ghts</w>": 1259, "hutchinson</w>": 35721, "noticing</w>": 37571, "joke</w>": 7198, "soc": 3253, "powder</w>": 9674, "olympus</w>": 30960, "khat": 43290, "zero": 14867, "taxes</w>": 11462, "tine</w>": 22341, "marque": 13012, "river</w>": 2473, "wags</w>": 48580, "proper": 3577, "daven": 28350, "williams": 38452, "pune</w>": 14488, "swivel</w>": 48256, "itty</w>": 35096, "dain": 32222, "settlement</w>": 16494, "adam": 6037, "rocket": 25435, "wx</w>": 3561, "spor</w>": 33746, "suri</w>": 33952, "lls</w>": 40535, "nola</w>": 13289, "ecb</w>": 26205, "symphony</w>": 11180, "mcclure</w>": 44945, "rush": 12148, "noon": 37693, "âľĬ": 12392, "ðŁĮı</w>": 31527, "livery</w>": 23248, "ecu</w>": 32919, "glee</w>": 21614, "mise": 46567, "bribe</w>": 40042, "semiconduc": 35646, "andu": 44200, "molly</w>": 12573, "turi": 11896, "valu": 6291, "Ĺ": 245, "futbol</w>": 33014, "pregame</w>": 18575, "vampi": 47017, "masterpiece</w>": 12066, "allison": 34602, "izo</w>": 46910, "lex": 6586, "morrisons</w>": 40965, "scountry</w>": 40432, "armenian</w>": 24891, "tbli": 43664, "pjnet</w>": 22011, "induced</w>": 24103, "seÃ±": 43368, "dill": 12318, "lisam": 43072, "deficit</w>": 20156, "ab</w>": 3937, "ãĢľ</w>": 39581, "kl": 8498, "pvp</w>": 44172, "lamp": 26700, "debut</w>": 4085, "hershey</w>": 29734, "flipkart</w>": 33154, "roland": 33713, "procedural</w>": 48177, "reset</w>": 26250, "motown</w>": 32685, "dang</w>": 14992, "curb</w>": 21931, "habit</w>": 17215, "genuine</w>": 12184, "shut</w>": 8282, "disturb": 33018, "aths</w>": 28835, "sy</w>": 2126, "dick</w>": 9554, "bhutan</w>": 32391, "index</w>": 9458, "rug</w>": 19220, "futur": 38840, "demolished</w>": 26537, "finite</w>": 48312, "elan</w>": 18399, "(\"</w>": 18741, "hull</w>": 10375, "oness</w>": 25379, "postman</w>": 38285, "parkinson</w>": 28129, "naturelovers</w>": 41514, "abundance</w>": 23236, "reductions</w>": 48263, "mcmahon</w>": 24026, "ian</w>": 1800, "puddle</w>": 33545, "selfish</w>": 26907, "prac": 2243, "ultram": 44519, "abh": 27484, "'s</w>": 568, "kale": 17162, "hart</w>": 7752, "afil": 27209, "mups</w>": 42195, "âĨĴ</w>": 7481, "ullivan</w>": 45252, "dep</w>": 24370, "anwar</w>": 34261, "elen": 30654, "facial</w>": 11909, "stuffed</w>": 11781, "cmu</w>": 43046, "peers</w>": 21626, "shannon</w>": 13581, "encapsul": 40874, "alism</w>": 5607, "expired</w>": 30200, "properties</w>": 10922, "freshness</w>": 45872, "reply</w>": 8965, "tamilnadu</w>": 32371, "ìĺ": 21144, "naveen</w>": 43837, "culin": 14772, "sala</w>": 17300, "phan": 8731, "tester</w>": 32707, "irr": 24641, "âĺķï¸ı": 25839, "ðŁĶ¥ðŁĶ¥": 5692, "deple": 38504, "romania</w>": 15884, "math": 13277, "mixer</w>": 17200, "mr</w>": 1982, "twelf": 39443, "depths</w>": 28855, "olivia</w>": 11697, "sickest</w>": 47972, "uncle</w>": 8002, "tottenham</w>": 14889, "accumul": 19275, "jae": 16869, "investigation</w>": 8194, "hak": 25142, "merchant</w>": 19563, "sonny": 43000, "chk</w>": 47424, "boutique</w>": 12179, "tai</w>": 13040, "grabs</w>": 17076, "practitioners</w>": 29045, "tips</w>": 3173, "chate": 30377, "prohibition</w>": 34440, "ðŁĲķ</w>": 41069, "shawn</w>": 10970, "moods</w>": 43727, "kerr</w>": 20491, "bulgarian</w>": 38693, "berke": 14639, "macdonald</w>": 20315, "sse</w>": 8938, "shealth</w>": 22197, "kenya</w>": 6181, "rÃ©": 29106, "peta</w>": 28785, "sampson</w>": 39983, "tasteof": 38097, "sergey</w>": 35390, "gins</w>": 18328, "braries</w>": 46377, "grande</w>": 10757, "helle</w>": 46968, "pis</w>": 44441, "âŃĲï¸ıâŃĲï¸ı": 18640, "shawty</w>": 38026, "sellers</w>": 16562, "quets</w>": 39055, "lp": 22282, "absor": 14303, "dian</w>": 4998, "dealing</w>": 13138, "snowed</w>": 45073, "negoti": 10216, "syrians</w>": 41392, "coura": 4436, "pediatric</w>": 22071, "ays</w>": 785, "reduces</w>": 20539, "begs</w>": 43531, "charge": 25032, "impacts</w>": 15069, "bbhuttozardari</w>": 28135, "stephen": 10421, "Ç": 131, "confess</w>": 38860, "sleigh</w>": 30865, "moist</w>": 33263, "gonzaga</w>": 36241, "bing": 24818, "after": 2278, "cbn</w>": 26579, "exo": 15600, "accepts</w>": 22338, "lighter</w>": 14102, "ffe": 1138, "ln</w>": 18654, "pbl</w>": 35166, "steen": 42851, "jaejoong</w>": 43610, "cancels</w>": 34089, "cooper": 7264, "karab": 40916, "eccle": 27494, "cdn</w>": 26802, "towers</w>": 12701, "alum": 5404, "cucu": 16705, "ðŁĺĭ": 12391, "clinics</w>": 23330, "acons</w>": 31599, "nodejs</w>": 39262, "warmer</w>": 14328, "ran": 1433, "popefrancis</w>": 37254, "slu": 7224, "net</w>": 2315, "teenwolf</w>": 40067, "escape": 32484, "azcardinals</w>": 48846, "notjust": 33212, "alm</w>": 28303, "discounted</w>": 20993, "student</w>": 2556, "biomedical</w>": 33117, "loui": 42173, "mtn</w>": 18953, "mechanics</w>": 20536, "cape</w>": 6631, "teur</w>": 27120, "biryani</w>": 46489, "fd</w>": 11525, "asylum</w>": 15638, "urie</w>": 46429, "alim": 42075, "ðŁĳ©âĢį": 26304, "ðŁĺ¥</w>": 23951, "safe</w>": 2996, "todos</w>": 33355, "shame": 14776, "ÛĮ": 21452, "cotland</w>": 32576, "eps</w>": 4090, "amas": 22716, "cowan</w>": 42699, "calgary</w>": 10797, "infected</w>": 26136, "missiles</w>": 27868, "gems</w>": 14355, "choreo": 17443, "michele</w>": 20642, "bru</w>": 31028, "mutations</w>": 39651, "qual": 9979, "loyal</w>": 13032, "maris</w>": 33093, "spiel": 28435, "favor</w>": 12160, "antarctica</w>": 22587, "carnation</w>": 44577, "east": 5022, "out": 1130, "kron": 25999, "ticul": 15538, "cyprus</w>": 15263, "desi</w>": 26635, "ariana</w>": 14892, "pla": 841, "stirling</w>": 23128, "felipe</w>": 27681, "across</w>": 2500, "fod</w>": 43299, "Ð</w>": 396, "shoreditch</w>": 35042, "decorating</w>": 16968, "liam</w>": 7167, "sabcnews</w>": 41093, "pans</w>": 35204, "lagi</w>": 39786, "hospital</w>": 3851, "iansomerhalder</w>": 47077, "sill": 42468, "jobsearch</w>": 45459, "dug": 22743, "lders</w>": 43221, "kiln</w>": 44150, "wham": 42506, "hosp</w>": 37853, "reportedly</w>": 10953, "briggs</w>": 28108, "naw</w>": 30500, "erich</w>": 26070, "chandler</w>": 17595, "â¬Ĩï¸ı</w>": 32798, "link": 18433, "byl</w>": 34994, "mug": 16339, "consciously</w>": 46755, "mercury": 45203, "cosy</w>": 22848, "fpp</w>": 36464, "boldand": 48413, "drags</w>": 45368, "popularity</w>": 19235, "largely</w>": 21418, "audiences</w>": 22328, "geared</w>": 33903, "accommodations</w>": 45536, "chairperson</w>": 31584, "wirral</w>": 34675, "member": 29566, "ausvotes</w>": 34661, "proceed</w>": 33894, "fidel</w>": 36837, "seag": 15730, "emu": 48149, "ë§": 28024, "survive</w>": 10431, "à¤": 3124, "claremont</w>": 47789, "stylish</w>": 10378, "incl</w>": 13338, "kul": 11325, "diver": 13119, "cies</w>": 6785, "sequence</w>": 18833, "comple": 1730, "josie</w>": 33167, "apocalyptic</w>": 35675, "refused</w>": 17190, "Ę</w>": 468, "hats</w>": 9812, "cybersecurity</w>": 10581, "crores</w>": 37281, "japan": 4502, "respectful</w>": 24379, "frequency</w>": 18825, "sett": 4984, "watkins</w>": 22539, "sarah": 9086, "lifted</w>": 16783, "ative": 18422, "sarkar</w>": 30673, "à¸¹</w>": 35273, "galaxy</w>": 6545, "erra</w>": 48446, "practise</w>": 38938, "diameter</w>": 27189, "melting</w>": 19247, "dreamer</w>": 25692, "Ü": 152, "m": 76, "galleria</w>": 40656, "itutes</w>": 32883, "kas": 6119, "vile</w>": 27247, "pile</w>": 13930, "enjoy</w>": 2218, "samu": 7646, "rahul</w>": 17440, "stick": 5483, "nouri": 23796, "instruments</w>": 14793, "teaching</w>": 5141, "calle</w>": 38144, "!-</w>": 43499, "forced</w>": 8201, "unbelievably</w>": 33781, "tunisia</w>": 23346, "diso": 26305, "socal": 46470, "wasted</w>": 18278, "isd": 46816, "isi": 7233, "relocation</w>": 39198, "mao</w>": 25605, "train</w>": 3231, "please": 41074, "madagas": 24758, "bumble": 25585, "india": 27067, "suma</w>": 47938, "picture</w>": 1674, "bloom</w>": 10257, "enting</w>": 20526, "ðŁĴªðŁı½</w>": 31111, "fury</w>": 14404, "believe": 15819, "replied</w>": 24238, "colorstv</w>": 28195, "versi": 8934, "phenom": 31673, "hesit": 23933, "jic": 48350, "fame</w>": 6573, "dirt</w>": 11795, "rye": 24015, "screened</w>": 31450, "bosh</w>": 42244, "earphones</w>": 44905, "combine</w>": 12919, "parame": 27106, "jie</w>": 40005, "manus</w>": 28181, "ðŁĻı": 4260, "protagonist</w>": 38183, "gn</w>": 9831, "âĦ¹</w>": 45462, "lais</w>": 34923, "ung</w>": 4334, "viewpoint</w>": 41604, "inconvenience</w>": 40563, "airstrikes</w>": 37220, "decisions</w>": 9903, "cornwall</w>": 10777, "malcol": 12645, "cult</w>": 11965, "pregnancy</w>": 12769, "millionaire</w>": 25179, "compromising</w>": 45436, "gritty</w>": 33704, "pfw</w>": 31229, "concluded</w>": 27825, "\"\"": 41530, "swatch</w>": 48053, "dietary</w>": 29009, "bbmas</w>": 22145, "bikes</w>": 9227, "yap": 48700, "sciento": 36193, "L": 43, "koto": 40945, "bl": 833, "puli</w>": 47293, "Ĥâĸ": 29036, "mechanisms</w>": 28610, "kyu": 28296, "plain": 22776, "cals</w>": 47714, "kyung</w>": 41058, "caster</w>": 8449, "cyclist</w>": 20686, "abraham</w>": 15869, "denial</w>": 25716, "intrigue</w>": 45140, "derail": 48502, ".......</w>": 9917, "hah": 18108, "tye</w>": 43097, "rspca</w>": 45643, "consumer</w>": 10422, "country</w>": 2157, "torre</w>": 38009, "dann": 11951, "duncan": 31084, "lef": 9152, "terrible</w>": 9741, "gents</w>": 18862, "khalid</w>": 27166, "dailysketch</w>": 46738, "trafal": 32461, "dobbs</w>": 43006, "tives</w>": 7570, "would</w>": 1311, "nationally</w>": 15130, "lipp": 38074, "mesm": 18695, "kk</w>": 10849, "mmy</w>": 8722, "remain</w>": 6415, "acknowle": 18100, "symbolic</w>": 33177, "á</w>": 413, "nuestro</w>": 38590, "deliberately</w>": 35163, "hob": 18212, "msn": 18824, "//": 15348, "gib": 9816, "instrument</w>": 15806, "capitol": 43880, "iconic</w>": 6959, "model": 4591, "circulation</w>": 27880, "palace</w>": 6381, "vern</w>": 12586, "ner</w>": 998, "flea</w>": 24883, "musica</w>": 26668, "cham</w>": 19951, "ģ</w>": 479, "terraces</w>": 47508, "wwfc</w>": 42681, "beau</w>": 14298, "samanthaprabhu</w>": 38643, "ha</w>": 1429, "Ē": 206, "illie</w>": 26083, "endure</w>": 32419, "]</w>": 316, "lmaoo</w>": 32623, "cayenne</w>": 43650, "executive</w>": 5944, "usnavy</w>": 24500, "stour": 37361, "conceptions</w>": 40307, "acle</w>": 6504, "profici": 34685, "highlighting</w>": 17344, "muck</w>": 45330, "recalling</w>": 47855, "overwhelmed</w>": 23459, "latest": 46805, "stras": 36814, "penthouse</w>": 32673, "neck": 6066, "easily</w>": 8197, "ance</w>": 884, "ðŁĻĬ": 23684, "asc</w>": 23305, "complaints</w>": 20020, "affiliation</w>": 48377, "shaheer</w>": 43969, "Þ": 154, "jelly</w>": 13762, "smal": 48379, "gado</w>": 29489, "pox</w>": 43649, "pamela</w>": 26991, "sloane</w>": 41553, "brisban": 30431, "central": 13448, "aveng": 21935, "caday</w>": 34187, "user</w>": 7031, "clermont</w>": 47529, "llo</w>": 19293, "ain</w>": 2210, "solu": 2487, "religious</w>": 8289, "grazi": 42427, "directed</w>": 8392, "mahon</w>": 20371, "tronics</w>": 34397, "mamma</w>": 34893, "sweeps</w>": 26887, "joaqu": 25140, "inated</w>": 38530, "cramps</w>": 46106, "jeb</w>": 35101, "power": 2789, "pix": 6185, "fighton</w>": 45578, "cultural": 34908, "seal": 21381, "proverb</w>": 34419, "nominees</w>": 17873, "tsn</w>": 26896, "sarab": 40716, "ingu": 8714, "dx": 22717, "nik</w>": 13705, "clutter</w>": 40804, "gari": 40898, "calendars</w>": 17229, "might</w>": 2727, "orial</w>": 8648, "dupont</w>": 35994, "swims</w>": 46798, "expressing</w>": 30207, "okay</w>": 4917, "fractal</w>": 46471, "lifter</w>": 38555, "cumul": 42961, "camar": 31991, "gideon</w>": 43867, "training</w>": 2199, "arca": 25189, "siamese</w>": 43161, "âĢĭ": 17086, "afi</w>": 31958, "rides</w>": 11308, "berni": 18798, "blossom</w>": 14472, "residentevil</w>": 48393, "organization</w>": 8064, "lifeline</w>": 38438, "script</w>": 8374, "raise</w>": 5078, "paysoff</w>": 48174, "toxic</w>": 12348, "sanitation</w>": 25414, "ssoccer</w>": 32546, "shes</w>": 2502, "trane</w>": 35779, "latin</w>": 9888, "disneyland</w>": 13661, "keyword</w>": 42284, "deception</w>": 33046, "lehigh</w>": 34527, "dixon</w>": 16086, "sexist</w>": 33047, "renowned</w>": 14727, "gas</w>": 2474, "buhari</w>": 14661, "liet</w>": 41107, "deepikap": 29903, "ìĬ": 12125, "vocals</w>": 17666, "denied</w>": 15780, "hongkong</w>": 16659, "laurel</w>": 19942, "victory": 36668, "trumprussia</w>": 39135, "stuk</w>": 32424, "yoon": 30863, "licensed</w>": 18752, "âĿ¤âĿ¤âĿ¤âĿ¤</w>": 43970, "glendale</w>": 33043, "rons</w>": 19536, "mith</w>": 17948, "zz</w>": 4943, "cashback</w>": 36368, "ial": 11530, "beer</w>": 2544, "dermatology</w>": 48051, ":')</w>": 10701, "Ă": 190, "camo": 28702, "tourism</w>": 6556, "laurent</w>": 23226, "yukon</w>": 27094, "savethe": 18031, "goria</w>": 43359, "villanova</w>": 44025, "manitoba</w>": 20342, "capsule</w>": 20627, "drain</w>": 19467, "eld</w>": 5684, "clerk</w>": 22230, "Ě</w>": 470, "tumbling</w>": 46226, "dler</w>": 40279, "aghan</w>": 31276, "gwen": 32165, "jonas</w>": 13650, "docs</w>": 15157, "uphold</w>": 43897, "unconventional</w>": 39440, "superb</w>": 8930, "sami</w>": 24322, "effortlessly</w>": 42320, "bley</w>": 43176, "gowns</w>": 38029, "gf": 28953, "ornaments</w>": 28968, "arianag": 23025, "loin</w>": 21760, "obi": 21454, "soils</w>": 34891, "section": 34986, "tril": 40626, "$)</w>": 39460, "recruit</w>": 15585, "catalonia</w>": 27039, "tmw</w>": 45827, "motorsports</w>": 24264, "lufthan": 37769, "patriot": 28896, "revealed</w>": 7171, "deplo": 9356, "sym": 3645, "aryan</w>": 34966, "chia</w>": 19147, "highways</w>": 28007, "gher</w>": 14796, "ãĤ": 3909, "st": 522, "comparison</w>": 14186, "hast": 18146, "svu</w>": 32123, "rallying</w>": 36836, "ttle</w>": 9253, "nearly</w>": 4816, "routine</w>": 12319, "gordo</w>": 47707, "yamaha</w>": 18854, "penny": 20400, "coatings</w>": 48706, "medications</w>": 37181, "bar</w>": 2411, "skeptical</w>": 44934, "honored</w>": 5494, "Ã¡n": 38340, "Â£": 31117, "dut": 32625, "lipstick</w>": 15618, "ik</w>": 10177, "optimus</w>": 43453, "department</w>": 5744, "fraternity</w>": 24433, "folk": 10665, "pers": 3688, "repur": 41852, "heroes": 38010, "xh</w>": 45771, "persist</w>": 40938, "ðŁ": 558, "cbi</w>": 30875, "hickman</w>": 49148, "liverpool": 29778, "flesh</w>": 17495, "kwon</w>": 36369, "taco": 31924, "bibl": 20912, "ebooks</w>": 25774, "discussing</w>": 5900, "eloqu": 37795, "bluet": 13469, "devin</w>": 20996, "estonia</w>": 26260, "aaz</w>": 26770, "flavo": 28895, "ðŁİħ": 17685, "ge</w>": 710, "defin": 3188, "indigo</w>": 21002, "jol": 9174, "ghar</w>": 36973, "koval": 47903, "msm</w>": 22210, "prov</w>": 35021, "fairmont</w>": 41547, "robson</w>": 31113, "ben": 1465, "proofing</w>": 35679, "Ø</w>": 404, "suarez</w>": 21437, "ðŁĻĮðŁĻĮ": 21202, "ðŁĺ¹</w>": 26573, "pattinson</w>": 32474, "games</w>": 1955, "cone": 39279, "rada</w>": 30437, "danger</w>": 11212, "fuel": 21113, "censored</w>": 30951, "add": 19408, "veal</w>": 36616, "surveill": 15408, "profess": 5486, "ffin": 12779, "illas</w>": 23404, "grids</w>": 46500, "fronts</w>": 26846, "somaliland</w>": 43315, "meal</w>": 5478, "eds</w>": 1941, "congressional</w>": 15239, "soar": 48997, "(Â©</w>": 44886, "khand": 43384, "likes</w>": 4724, "dlc</w>": 19079, "est": 2291, "grunge</w>": 33745, "rpm</w>": 23715, "harlan</w>": 49133, "kreme</w>": 43140, "cheapest</w>": 26640, "aimee</w>": 36318, "pist</w>": 32826, "youuu</w>": 35324, "ets</w>": 3442, "finished</w>": 3078, "tation</w>": 5280, "duran</w>": 28185, "winetasting</w>": 41288, "johnston</w>": 19791, "japan</w>": 3400, "bits</w>": 7747, "arama</w>": 49066, "imf</w>": 28403, "greenland</w>": 27345, "demp": 22490, "appeared</w>": 11561, "resident</w>": 9016, "nath</w>": 19843, "taver": 37776, "viewers</w>": 14275, "wire": 7558, "numer": 11442, "iel</w>": 22729, "lte</w>": 25202, "ballad</w>": 33472, "sweetheart</w>": 18079, "fou": 14516, "nam": 1410, "detected</w>": 26988, "aroo</w>": 47581, "alu": 4776, "howe": 8179, "tsunami</w>": 24286, "âĦ¢</w>": 11675, "departing</w>": 26902, "like</w>": 789, "monsieur</w>": 48879, "steel</w>": 4726, "shetland</w>": 29595, "admits</w>": 16332, "twinning</w>": 30156, "endez</w>": 43850, "hardwork</w>": 27404, "returning</w>": 9290, "sover</w>": 31876, "mccormick</w>": 39088, "weiler</w>": 42203, "lower": 32578, "dump": 12655, "door</w>": 2489, "sprink": 15817, "pipel": 12387, "lifein": 48447, "masc": 23564, "leica</w>": 30206, "palli": 28954, "coup": 9871, "kendra</w>": 36074, "alliance</w>": 8945, "ðŁĺ¤</w>": 20740, "inki": 46176, "meded</w>": 27627, "portland</w>": 8880, "motherhood</w>": 32274, "berkshire</w>": 27300, "unders</w>": 20376, "bim</w>": 24775, "steamed</w>": 29007, "members</w>": 2567, "oric</w>": 43810, "weg</w>": 47561, "kennedy</w>": 9004, "launches</w>": 7023, "sub": 1783, "club</w>": 1736, "uddin</w>": 43035, "tempt</w>": 28460, "seam</w>": 44201, "azine</w>": 29140, "kings": 18590, "bono</w>": 24476, "brave": 25461, "sman</w>": 9612, "alistic</w>": 22302, "condol": 18661, "coco": 11850, "rally": 18882, "noodle</w>": 19521, "blasted</w>": 38976, "watching</w>": 2113, "plasticsurgery</w>": 48555, "sunset</w>": 3424, "verst": 42484, "/": 14, "bras</w>": 22611, "advisor</w>": 12380, "vacc": 13342, "sach": 30168, "bootleg</w>": 38139, "forfe": 44871, "nan</w>": 7750, "cheng</w>": 30190, "âŀľ</w>": 23775, "collect</w>": 10186, "qld": 23039, "something": 28316, "iled</w>": 3358, "rox": 14111, "raving</w>": 45807, "wah</w>": 18014, "kubernetes</w>": 45144, "delle</w>": 35963, "weather</w>": 2237, "ek": 4212, "enclosure</w>": 37419, "bronx": 48310, "lei": 15828, "accuracy</w>": 18423, "farmland</w>": 45258, "processes</w>": 15169, "copy": 11376, "firefox</w>": 35372, "yl</w>": 4045, "talented</w>": 5331, "gaya</w>": 39477, "engraving</w>": 33309, "maid</w>": 10226, "hogan</w>": 19757, "ahhhhh</w>": 36392, "gregg": 39422, "lawn</w>": 11024, "obrien</w>": 31946, "middleton</w>": 23627, "iot</w>": 6627, "interface</w>": 18753, "agre": 3180, "whey</w>": 34556, "sleep": 4656, "robbers</w>": 40852, "forza</w>": 28089, "label": 12235, "ze</w>": 1298, "confusion</w>": 20493, "zieg": 40157, "tomlinson</w>": 17484, "buxton</w>": 41370, "vidya</w>": 45264, "atedly</w>": 24698, "pronounced</w>": 34109, "christmas": 18174, "veterinary</w>": 25458, "paralym": 18727, "llan</w>": 38728, "wamy</w>": 46970, "overwhelmingly</w>": 43549, "nir": 15503, "holme</w>": 46149, "myal": 42735, "itch": 2387, "townhouse</w>": 40178, "ðŁĺĩ</w>": 13091, "turk": 8254, "enen</w>": 45113, "distingui": 15053, "doggy</w>": 26359, "actors</w>": 9255, "chennai": 28948, "resilient</w>": 24694, "hardy</w>": 14113, "âĺĢ</w>": 22242, "patrick": 12078, "vis": 1301, "shiva</w>": 21174, "astra": 47205, "discoun": 18515, "gee": 9806, "capri": 48699, "barun": 38278, "snap</w>": 7404, "hereford</w>": 35543, "wharf</w>": 22452, "arma</w>": 38716, "âĺºï¸ı</w>": 7779, "dunk</w>": 17222, "basking</w>": 39769, "gamecube</w>": 44079, "ority</w>": 5556, "cls</w>": 44251, "dulkar</w>": 47980, "aggression</w>": 28900, "ativity</w>": 25166, "nee</w>": 10601, "listeners</w>": 26901, "news</w>": 1120, "leinster</w>": 32242, "pooch</w>": 37037, "iamsrk</w>": 15103, "âļĶï¸ı</w>": 29361, "theresistance</w>": 22845, "time": 3764, "sweeter</w>": 32873, "missile</w>": 14411, "unilever</w>": 48654, "antiqu": 21745, "fadnavis</w>": 38945, "ateful</w>": 5419, "tos</w>": 6094, "amnesty</w>": 21177, "ambitious</w>": 18666, ":'": 8017, "desperately</w>": 21993, "tender</w>": 9838, "nuk</w>": 39228, "possi": 2521, "fintech</w>": 8899, "inflatable</w>": 30135, "rewards</w>": 15235, "clu": 996, "goin</w>": 13939, "enda</w>": 6735, "focu": 5827, "beneath</w>": 16850, "arrell</w>": 28846, "appalling</w>": 44797, "raj": 5958, "amine</w>": 35823, "ense": 12657, "shamrock</w>": 34199, "esq</w>": 47352, "improvements</w>": 16320, "chevy</w>": 16581, "imer</w>": 21802, "eater</w>": 24060, "uhur": 29434, "haunted</w>": 14944, "impo": 45704, "motocross</w>": 34562, "ging": 10829, "breaking": 14698, "chase</w>": 3859, "amur": 35014, "silhou": 20589, "tonyawards</w>": 46068, "ðŁĵį</w>": 8903, "scoe</w>": 31164, "howto</w>": 44060, "metro": 7257, "waifu</w>": 46551, "gilded</w>": 44341, "strikes</w>": 9280, "pknot</w>": 41779, "åĲ": 41673, "kate": 11620, "popping</w>": 18152, "ŀ": 252, "Đ": 204, "ample</w>": 34162, "northwest</w>": 12894, "stron": 4165, "magento</w>": 42442, "subsidiary</w>": 45506, "weir": 11299, "guay": 48591, "tini</w>": 26839, "holt</w>": 18868, "logans</w>": 40752, "benitez</w>": 46711, "yar</w>": 23071, "elles</w>": 24431, "gues": 39971, "pianos</w>": 47904, "ros</w>": 6930, "copenhagen</w>": 17390, "conte</w>": 26882, "acab": 41388, "sonya</w>": 39172, "berkeley": 46049, "aneous</w>": 48273, "protocols</w>": 39631, "nai": 6230, "ðŁĵĨ</w>": 23471, "lived</w>": 8867, "opposes</w>": 47471, "buzzfeed</w>": 26613, "serv": 1297, "farmers": 29752, "palad": 28371, "julius</w>": 20870, "overlooked</w>": 27632, "kristin</w>": 26785, "mb</w>": 3996, ".*</w>": 26145, "dachsh": 41641, "tromb": 32390, "el": 544, "@": 31, "alban": 10882, "feel</w>": 2051, "sultan</w>": 17049, "medley</w>": 24793, "damages</w>": 28842, "pk</w>": 10991, "gross": 31080, "igor</w>": 33024, "busch</w>": 20475, "stoke</w>": 13550, "uss</w>": 9260, "ķãĤ": 26609, "gaining</w>": 15260, "rande</w>": 21469, "aesthe": 21181, "limous": 47287, "kiwis</w>": 48108, "vascular</w>": 19218, "fall</w>": 2359, "liance</w>": 40864, "comes</w>": 2091, "reserved</w>": 19796, "realest</w>": 45855, "dancer</w>": 11400, "unpredictable</w>": 38684, "killers</w>": 17614, "rehabil": 17930, "ilation</w>": 16180, "ant</w>": 773, "dek</w>": 23901, "uten": 32089, "stiff</w>": 21441, "polar</w>": 12214, "apps</w>": 7020, "hof</w>": 12789, "schoolers</w>": 31455, "hadn</w>": 21480, "shovel</w>": 31778, "devgn</w>": 29871, "weeksary</w>": 24628, "december</w>": 3864, "nepali</w>": 47579, "vam": 9983, "gunner</w>": 35285, "sculpting</w>": 44389, "tier": 14390, "piedmont</w>": 39691, "ðŁĳ£</w>": 39755, "arsen": 5330, "inging</w>": 4066, "dispro": 32927, "gamestop</w>": 39436, "escobar</w>": 48807, "renewed</w>": 20524, "quered</w>": 23210, "darlington</w>": 34565, "stlouis": 40358, "splat": 15733, "juventus": 47378, "rspb</w>": 36727, "labor": 11201, "lethbridge</w>": 48390, "atus</w>": 14795, "blow": 15230, "hew": 48141, "nicholas": 39814, "mota</w>": 42499, "comin</w>": 18164, "ine": 855, "phx</w>": 29507, "arrange</w>": 26311, "cables</w>": 22408, "ringo</w>": 38845, "pen</w>": 5356, "apocalypse</w>": 17571, "pert</w>": 16306, "seventy</w>": 47170, "yacht": 43806, "hawke</w>": 38178, "leta</w>": 34319, "yuan</w>": 26236, "bap</w>": 23754, "set</w>": 1167, "cobain</w>": 36866, "neither</w>": 14398, "luv</w>": 8502, "retarded</w>": 44111, "invitation</w>": 15032, "ivory</w>": 16776, "scow": 27929, "auspol</w>": 8241, "jer": 2310, "model</w>": 2863, "chillout</w>": 39842, "recei": 2148, "kit": 4566, "whats</w>": 13084, "killed</w>": 3733, "erman</w>": 17990, "aka": 19154, "grasses</w>": 46807, "mut": 12598, "tright</w>": 29915, "clover</w>": 22812, "shown</w>": 8506, "postgraduate</w>": 31997, "wie</w>": 9131, "opio": 17371, "candi": 6034, "leagueoflegends</w>": 31737, "worst</w>": 5719, "visible": 36658, "fearless</w>": 17470, "devs</w>": 27374, "coys</w>": 19736, "constan": 38718, "stria</w>": 39620, "marbles</w>": 42931, "sowe": 36130, "stevie": 42104, "obvious</w>": 13959, "infront</w>": 37668, "merino</w>": 42648, "tttt</w>": 33119, "flavorful</w>": 49135, "acc</w>": 9318, "walk": 8588, "snc</w>": 39918, "razor": 24934, "andrews</w>": 14506, "command</w>": 11350, "linke": 15088, "jin</w>": 8485, "beirut</w>": 22352, "biopic</w>": 27942, "massimo</w>": 45821, "cincy</w>": 30286, "casually</w>": 18840, "professionals</w>": 10165, "biographical</w>": 49232, "vox</w>": 22692, "creati": 6714, "risks</w>": 12474, "lol": 10721, "ðŁĳīðŁı»</w>": 23481, "uconn</w>": 30549, "proudtobe": 35043, "complexity</w>": 24815, "jis</w>": 23515, "montre": 8434, "bg</w>": 11295, "ques</w>": 7715, "âŀ": 3257, "paramedics</w>": 35991, "mfg</w>": 21912, "renewal</w>": 21270, "boh": 43238, "veli</w>": 49166, "according</w>": 4717, "girl</w>": 1611, "folding</w>": 15464, "unga</w>": 19151, "patsy</w>": 46093, "realestate</w>": 6569, "bret": 38020, "flame": 40351, "glow": 30472, "navajo</w>": 35523, "darje": 49089, "ment": 1585, "setti</w>": 45170, "sehun</w>": 17705, "wellness": 40574, "fi</w>": 3589, "packaged</w>": 29656, "saas</w>": 25761, "chocolate": 29389, "angi": 28003, "episode</w>": 2965, "ryan": 8682, "bornonthisday</w>": 42757, "suffers</w>": 22389, "tomp": 43544, "moc": 41439, "gaa</w>": 10715, "rossi</w>": 24817, "oppressed</w>": 41492, "centennial</w>": 20895, "therapeutic</w>": 23240, "smartest</w>": 37092, "jenny": 20165, "controller</w>": 12929, "springtime</w>": 28285, "blom": 48996, "concessions</w>": 43981, "onu": 44142, "å¸": 42021, "dash</w>": 10206, "asp": 17814, "ren": 737, "finances</w>": 28767, "terry</w>": 8561, "rera</w>": 14301, "endish</w>": 38841, "baker": 27303, "drome</w>": 9157, "hai</w>": 5234, "collectibles</w>": 21519, "é": 165, "ageing</w>": 25349, "paws</w>": 16714, "shark</w>": 7980, "bard": 39812, "contra": 9880, "chorus</w>": 20869, "dusted</w>": 38274, "megan</w>": 11503, "checklist</w>": 26989, "inka</w>": 40685, "moe</w>": 17938, "peoples": 28241, "beg": 2219, "ssss</w>": 15880, "holm": 34758, "minority</w>": 16210, "newt</w>": 37224, "fug": 29227, "smashing</w>": 19632, "lonel": 28872, "porridge</w>": 34924, "emt</w>": 46360, "doz</w>": 31106, "eer": 35409, "song": 6868, "demen": 12604, "mely</w>": 6373, "inability</w>": 47517, "macedonia</w>": 27071, "oversight</w>": 32494, "fruitful</w>": 31494, "futurism</w>": 48435, "instructions</w>": 17040, "crusader</w>": 40171, "treasury</w>": 20956, "theday</w>": 4408, "ìĦ¸ë¸": 29658, "bacon</w>": 7104, "breaker</w>": 14814, "villen": 46177, "strand": 18214, "cambridge</w>": 9334, "shells</w>": 19265, "ĕ</w>": 465, "undertaking</w>": 49067, "ais": 7616, "reyn": 11998, "epile": 23150, "tackles</w>": 18021, "insert</w>": 18807, "islamophobia</w>": 43459, "spin": 6288, "bin": 4849, "vesti": 40349, "crying</w>": 6828, "sharpie</w>": 46858, "kees</w>": 10791, "inspirational</w>": 9855, "sligo</w>": 30424, "mark": 3805, "televised</w>": 39470, "----": 5753, "grateful": 45659, "malaysian</w>": 21136, "piper": 47052, "fryer</w>": 49217, "cw</w>": 11065, "reformed</w>": 40880, "criticalrolefanart</w>": 43663, "barnab": 43272, "cosmopolitan</w>": 35518, "dangerous</w>": 7350, "jfc</w>": 43652, "tuesday": 10209, "à¤®": 48254, "freebie</w>": 35865, "hike</w>": 9404, "addition</w>": 6698, "func": 8679, "pug": 20950, "gc": 8577, "hora</w>": 26013, "malign": 41122, "motherwell</w>": 48104, "albeit</w>": 38984, "astronomers</w>": 44268, "sfest</w>": 49024, "visitor</w>": 13881, "defining</w>": 20504, "mosa</w>": 23809, "foolish</w>": 33824, "aromas</w>": 47439, "wbb</w>": 14482, "openly</w>": 23005, "vest</w>": 12473, "air</w>": 1922, "vocab": 21346, "mcintyre</w>": 33369, "ways</w>": 1248, "chee": 5326, "spr</w>": 19417, "hove</w>": 29674, "muk</w>": 32600, "sometimes</w>": 4237, "Z</w>": 313, "fus</w>": 18419, "hv": 17209, "lobb": 27698, "onward</w>": 34827, "thcentury</w>": 49111, "meltdown</w>": 30613, "gt</w>": 4725, "seismic</w>": 38459, "shane": 26863, "schle": 32022, "analy": 4611, "the": 599, "bombshell</w>": 36340, "illinois</w>": 9414, "tour": 2710, "manoj</w>": 41146, "snat": 18457, "brady</w>": 11117, "holly</w>": 11923, "bedro": 18415, "reut": 15210, "jaguar": 44777, "relle</w>": 31390, "aty</w>": 33107, "falmouth</w>": 38261, "oxygen</w>": 16214, "findyour": 25936, "poppins</w>": 41216, "neighborhood</w>": 9471, "wearable": 44943, "fuls</w>": 41606, "dimension</w>": 20479, "born": 17695, "mech</w>": 38305, "keh": 41272, "firefighter</w>": 20498, "vila</w>": 37505, "console</w>": 13403, "rene": 15438, "andie</w>": 46318, "lid": 39369, "sleet</w>": 36948, "chr</w>": 36918, "violinist</w>": 36299, "eves</w>": 7323, "hepburn</w>": 26348, "â¤": 25087, "votes</w>": 6693, "esi</w>": 30064, "A</w>": 288, "boss</w>": 4206, "icu": 45118, "ohana</w>": 48330, "monastery</w>": 21850, "secure": 44763, "thwaite</w>": 48469, "basti": 8559, "gupta</w>": 15905, "appstore</w>": 31377, "alley</w>": 10329, "massacre</w>": 14696, "remaining</w>": 11392, "pogba</w>": 25998, "accommodate</w>": 34708, "louise": 32275, "ture</w>": 941, "cnet</w>": 47487, "goodbye</w>": 6968, "empathy</w>": 22420, "como</w>": 16236, "douglas</w>": 10065, "extremists</w>": 41425, "wat": 800, "chain": 13898, "reinforced</w>": 41909, "smallbusiness</w>": 21316, "sometime</w>": 21464, "spot": 3223, "usnews</w>": 43752, "vay": 48000, "rid": 18103, "mizing</w>": 38715, "floo": 4062, "ica</w>": 2576, "complement</w>": 36624, "spired</w>": 40650, "sneaky</w>": 21293, "corin": 17716, "stro</w>": 6186, "prison": 9281, "myths</w>": 18675, "grads</w>": 17811, "crews</w>": 10463, "amig": 40294, "lilli": 40920, ");</w>": 19686, "toe</w>": 11344, "weare": 4264, "arers</w>": 33159, "kali": 17844, "rr</w>": 9126, "nadu</w>": 20936, "buster": 37219, "chris": 9907, "eb</w>": 8677, "gary</w>": 4516, "superior</w>": 13205, "ecg</w>": 45983, "itte</w>": 31962, "squats</w>": 40213, "travelers</w>": 20644, "olla</w>": 31908, "mercede": 34959, "mobil</w>": 29815, "realness</w>": 46761, "brakes</w>": 23456, "!!!!": 4003, "disabled</w>": 13613, "arro": 15729, "diff": 44073, "vering</w>": 4630, "steaming</w>": 43746, "conju": 33821, "primark</w>": 48329, "nevis</w>": 43670, "polym": 23626, "hubb": 23183, "supra</w>": 48485, "montene": 28538, "inette</w>": 38911, "caber": 29062, "umin</w>": 31542, "kb</w>": 19960, "itude": 43382, "accusations</w>": 33615, "proportions</w>": 39391, "bangla": 10339, "ghz</w>": 24325, "dose</w>": 11497, "stays</w>": 13311, "byte</w>": 42798, "await</w>": 20769, "toi</w>": 26941, "ãħĭãħĭ</w>": 42581, "creme</w>": 22681, "titan": 13496, "dire": 38355, "many</w>": 1346, "seym": 22657, "necessity</w>": 33163, "survived</w>": 13483, "neman</w>": 48553, "umber": 19195, "horri": 8656, "consultation</w>": 15777, "rrrr": 25561, "_)</w>": 37393, "ðŁĴĽðŁĴĻ</w>": 36337, "loveisland</w>": 30970, "admi": 11666, "armed</w>": 8202, "hire": 32356, "deme": 25143, "twilight": 46366, "arden</w>": 27057, "writers": 18742, "likelihood</w>": 48158, "solid": 30626, "jerky</w>": 40079, "approved</w>": 9412, "precinct</w>": 32587, "ymouth</w>": 36429, "eunhyuk</w>": 47526, "suriya</w>": 17832, "lanyard</w>": 46808, "bombings</w>": 43236, "nevergiveup</w>": 42497, "hobbit</w>": 23207, "onics</w>": 9779, "unlocked</w>": 16770, "lieu": 20401, "heughan</w>": 32298, "scottsdale</w>": 27817, "orchestra</w>": 9573, "stra": 1894, "pixie</w>": 35573, "writing": 16053, "natives</w>": 36060, "give": 4120, "cowx</w>": 23831, "vibes</w>": 7764, "squat": 44628, "doe</w>": 13296, "ratri</w>": 32288, "((</w>": 13796, "destin": 4934, "rab": 14816, "annes</w>": 24343, "content</w>": 4750, "wj": 19739, "serve</w>": 2838, "sew</w>": 28640, "palazzo</w>": 36006, "escence</w>": 37972, "itions</w>": 5540, "ðĿĴ": 43387, "academics</w>": 26417, "nz</w>": 7082, "makeit": 26308, "talis": 36480, "sergio</w>": 18359, "soever</w>": 34024, "linkedin</w>": 16302, "wildfire</w>": 22788, "mirage</w>": 28679, "tter": 18691, "playwright</w>": 32070, "tsc</w>": 37437, "loses</w>": 14263, "eos</w>": 17805, "vape": 25423, "velvet</w>": 11063, "hmm</w>": 13725, "ola</w>": 3373, "frau": 23063, "tive": 14640, "yxe</w>": 34240, "andon</w>": 36488, "dancehall</w>": 33300, "eface</w>": 48804, "python</w>": 13370, "quaint</w>": 45976, "fangirling</w>": 39463, "comingsoon</w>": 19894, "tna</w>": 21150, "meow": 39965, "xton": 32666, "burns</w>": 10234, "moderate</w>": 16435, "hebrew</w>": 27298, "âľĶï¸ı": 40544, "sighting</w>": 17507, "broke": 42165, "phe</w>": 19853, "deliber": 18316, "vinci</w>": 30199, "apology</w>": 20768, "farage</w>": 28340, ">>": 8270, "rushes</w>": 47217, "Ð¼": 38018, "vica</w>": 46168, "convictions</w>": 44366, "ðŁĮļ</w>": 27877, "schools</w>": 3513, "laney</w>": 38552, "bookfest</w>": 39381, "podium</w>": 14093, "oran</w>": 28395, "guarantees</w>": 40154, "lion</w>": 5567, "rupt</w>": 23055, "ade": 2194, "foodbank</w>": 31926, "generosity</w>": 23015, "reich": 48589, "bestfriend": 29832, "distinct</w>": 25056, "fiction</w>": 6218, "seap": 29983, "mup</w>": 21966, "ðŁĳīðŁĳī</w>": 41480, "lit": 2213, "stage": 23182, "ouse": 32048, "continually</w>": 34086, "tiru": 36033, "doctr": 28497, "lipse</w>": 10351, "foreman</w>": 36174, "ÙĪ</w>": 38310, "pocket": 29147, "deviantart</w>": 26046, "ction": 17578, "microphone</w>": 24643, "knoll</w>": 43882, "maiden": 37011, "extremism</w>": 31493, "watt": 22899, "surrey</w>": 14315, "jiu": 43351, "hyp": 16964, "wright</w>": 6991, "tesco</w>": 15434, "rank</w>": 11501, "afford": 7951, "kal": 4187, "found</w>": 1546, "obstac": 24075, "kamen</w>": 40738, "yoko": 25929, "hamburg</w>": 18409, "lockscreen</w>": 42439, "itv</w>": 12805, "lingui": 29942, "sorrow</w>": 28020, "pedals</w>": 38535, "magaz": 2974, "sinthe": 30737, "reveal</w>": 8052, "wned</w>": 8628, "orn</w>": 8130, "carlyle</w>": 46555, "paragra": 24903, "doris</w>": 24285, "nair</w>": 27107, "sock": 29801, "woop</w>": 31884, "medalist</w>": 21040, "selby</w>": 43546, "elis": 23411, "almost": 47534, "tongue</w>": 13626, "I</w>": 296, "documentaries</w>": 44209, "combo</w>": 10155, "kra": 5762, "íĺĦ</w>": 34645, "uk": 2294, "christina</w>": 15925, "mildly</w>": 49059, "esa": 46834, "âĢįâĻĢï¸ı": 18897, "pyrenees</w>": 39744, "intake</w>": 19539, "contracep": 35109, "pler</w>": 17677, "lure</w>": 31376, "alvaro</w>": 41941, "routing</w>": 44086, "guin": 13284, "vasc</w>": 40995, "aroma": 40143, "nsw</w>": 11693, "lacy</w>": 38645, "etal</w>": 25221, "obituary</w>": 43580, "dans</w>": 16241, "âĻ¦": 32376, "il</w>": 958, "lx</w>": 30789, "tra": 752, "kickstart</w>": 40780, "sells</w>": 14306, "paddling</w>": 40645, "column</w>": 10593, "ðŁĳī</w>": 3988, "agend": 48653, "sul</w>": 19879, "darn</w>": 26059, "chau</w>": 37536, "detox</w>": 22459, "improvis": 32343, "prelude</w>": 42966, "hertz</w>": 49383, "sophisticated</w>": 20833, "volunteers</w>": 5939, "province</w>": 8978, "awal": 42447, "tuc</w>": 43871, "slay</w>": 19380, "yaho": 37929, "quint": 26898, "tober</w>": 2925, "(((</w>": 33287, "à¤ľ</w>": 39561, "proverbs</w>": 27016, "behind</w>": 2403, "stabil": 42576, "posei": 47270, "fault</w>": 13862, "cracked</w>": 19826, "lesnar</w>": 42223, "slogan</w>": 23398, "festi": 1943, "kelley</w>": 23776, "orioles</w>": 21430, "okanagan</w>": 43233, "credit</w>": 3900, "stormed</w>": 45939, "schwarz": 27074, "chao</w>": 31815, "protection</w>": 6238, "bama</w>": 20021, "companies</w>": 5361, "!),</w>": 37904, "willy</w>": 19599, "acles</w>": 34164, "lizzy</w>": 32306, "bet": 1051, "kiefer</w>": 48026, "discussed</w>": 11300, "lj": 34211, "ajay": 22494, "conquering</w>": 43778, "look": 8874, "indigen": 8348, "childrens": 31551, "obo": 46001, "johann</w>": 31180, "hobo</w>": 41334, "realise</w>": 14773, "oahu</w>": 37790, "potty</w>": 43569, "nil": 16852, "curt</w>": 38137, "dota</w>": 23085, "uni</w>": 5926, "fruit</w>": 5190, "carnaval</w>": 47238, "hippie</w>": 28637, "xperia</w>": 37615, "enri": 18915, "winelover</w>": 26357, "echo": 17366, "dictat": 26156, "msl</w>": 42736, "ðŁĺ»": 15453, "another": 29274, "tracing</w>": 27897, "srk</w>": 11216, "online": 12940, "ahora</w>": 43113, "uh": 17661, "atif</w>": 41592, "hemi</w>": 46856, "sliding</w>": 21468, "ãħĭ</w>": 25108, "recipes</w>": 9243, "lazy</w>": 10753, "missouri</w>": 11835, "alam</w>": 16012, "undisclosed</w>": 39334, "iler</w>": 3615, "luxembourg</w>": 23949, "cll": 46091, "eyeliner</w>": 33354, "\"@</w>": 1512, "tellers</w>": 42707, "hand": 1722, "stu</w>": 23531, "thal": 7967, "bowden</w>": 48538, "shredded</w>": 31772, "acional</w>": 26435, "mendoza</w>": 23680, "rescheduled</w>": 43553, "oxfam</w>": 45466, "opponents</w>": 19664, "gba</w>": 18528, "national</w>": 1362, "incorporate</w>": 34168, "luhan</w>": 20975, "faults</w>": 42752, "tsfor": 42654, "mit": 3303, "sep": 3212, "intl</w>": 14224, "fauna</w>": 30808, "strategies</w>": 9942, "championsleague</w>": 27638, "hurdles</w>": 25440, "iron</w>": 5391, "rino</w>": 47188, "northwestern</w>": 23685, "meal": 29662, "kline</w>": 47580, "ãĤ¤": 19319, "paperback</w>": 17928, "crimes</w>": 11827, "afirst</w>": 38601, "townsville</w>": 47330, "mugs</w>": 22852, "mccarthy</w>": 16974, "wong</w>": 17876, "voucher</w>": 18190, "exper": 1533, "amores</w>": 36338, "boyz</w>": 16152, "xxxxx</w>": 44195, "unnamed</w>": 44985, "memorialday</w>": 21598, "che": 983, "pura</w>": 25596, "encouragement</w>": 24959, "imitation</w>": 41630, "adults</w>": 9391, "humili": 25332, "abhcosmetics</w>": 49189, "raun": 41169, "akb</w>": 41962, "fortune": 40931, "raises</w>": 13297, "ballard</w>": 31750, "dicaprio</w>": 30755, "euroleague</w>": 46821, "gol": 1537, "yourselves</w>": 19747, "ados</w>": 20079, "nightw": 39956, "ãĢĤ": 38060, "heated</w>": 17057, "kidnapp": 16183, "âļľ": 47491, "casino</w>": 10473, "ðŁĩ±": 29533, "tubular</w>": 48786, "woken</w>": 43697, "scotsman</w>": 39612, "malayalam</w>": 34860, "introducing</w>": 6256, "nica</w>": 29040, "jaro</w>": 35505, "jisoo</w>": 43070, "bon</w>": 4216, "bble": 26570, "kingdomhearts</w>": 48570, "involved</w>": 5320, "lands</w>": 2961, "brook": 4782, "bique</w>": 27809, "craven</w>": 33625, "ãĤĮ</w>": 45211, "ðŁĴ°": 20454, "ðŁĲ¾ðŁĲ¾</w>": 42202, "owski</w>": 22573, "pink": 11151, "penetr": 26058, "%-</w>": 48784, "moulin</w>": 47656, "ðŁĴĻ": 5305, "arora</w>": 31897, "funded</w>": 10588, "jone": 33934, "letit": 46423, "dessert</w>": 9753, "tcm</w>": 26588, "wot</w>": 24863, "markus</w>": 33725, "tellu": 42511, "galway</w>": 17112, "brotha</w>": 33974, "natalia</w>": 32978, "gameon</w>": 47691, "hazard": 26174, "adores</w>": 30290, "sink</w>": 14551, "france</w>": 3552, "ramps</w>": 35257, "hoste": 31700, "hype</w>": 11111, "atay": 39518, "asober": 43749, "iter": 7938, "outfitters</w>": 37725, "crop</w>": 9955, "mined</w>": 48034, "shul": 30721, "guitar": 21746, "had</w>": 1100, "knick": 33286, "slopes</w>": 24066, "luis</w>": 11339, "tet": 40468, "ðŁļ´": 30825, "mysterious</w>": 12650, "oring</w>": 3006, "supportsmall": 30941, "filmfest</w>": 24508, "reflex": 45756, "idr</w>": 10106, "storytelling</w>": 14457, "medieval</w>": 10789, "mpls</w>": 34298, "mayorof": 43533, "petal</w>": 40469, "ills</w>": 1900, "chasu": 41352, "madam": 33634, "rosal": 30397, "swamp": 41953, "performance</w>": 2714, "woman</w>": 2308, "native": 20639, "facts</w>": 5085, "viron": 38309, "bre": 887, "reg": 5472, "banquet</w>": 14254, "colony</w>": 18767, "quin": 8607, "Ù": 149, "tages</w>": 39902, "Ã¶</w>": 37423, "bargain</w>": 15076, "aco": 9463, "thers</w>": 1959, "kzn</w>": 38264, "alay": 30289, "ðŁĴ¸": 37696, "musicislife</w>": 43311, "feelthebern</w>": 27743, "cervical</w>": 35953, "icom</w>": 29796, "behindthe": 21104, "tati": 31433, "fangirl</w>": 28813, "chups</w>": 46331, "pageant</w>": 22139, "couture</w>": 14808, "shahidkapoor</w>": 29892, "nonprofit</w>": 19315, "yel</w>": 48164, "bulgaria</w>": 20295, "cushions</w>": 34163, "questioned</w>": 31847, "montess": 43205, "repet": 38533, "divide</w>": 18842, "emergency": 44038, "permanently</w>": 25584, "brox</w>": 43539, "exit</w>": 9374, "schal": 35568, "communal</w>": 32809, "prediction</w>": 16296, "fred": 9486, "cochrane</w>": 41752, "savings</w>": 10651, "indefin": 29501, "puppy": 25431, "roger": 13929, "oit": 18453, "shopp": 38486, "mallorca</w>": 28082, "myanmar</w>": 14764, "bom": 3012, "grosven": 46911, "thirds</w>": 42582, "dayo": 29856, "pdt</w>": 21743, "hippo</w>": 36729, "gambia</w>": 32988, "bcs</w>": 24909, "sorrynotsorry</w>": 37105, "greenville</w>": 25156, "curtis</w>": 13808, "cinnamon</w>": 13460, "turner</w>": 8777, "dl": 12558, "pof": 40850, "ironman</w>": 20330, "command": 18391, "average</w>": 6254, "dailynews</w>": 43466, "ecosystems</w>": 28725, "exploding</w>": 34683, "cec</w>": 40029, "joyce</w>": 15275, "ivy": 36939, "heartbroken</w>": 35383, "horn": 15771, "banners</w>": 23145, "ê·": 42680, "robot</w>": 8797, "cabo</w>": 28370, "ðŁĩ®ðŁĩ¹</w>": 17070, "traction</w>": 10644, "fabric</w>": 10033, "isnt</w>": 19416, "deri": 34573, "philanthropy</w>": 25047, "legitim": 17656, "nomnom</w>": 26962, "princi": 5129, "paul": 6035, "Ö</w>": 402, "pap": 1884, "basilica</w>": 27879, "devlin</w>": 48040, "ffel</w>": 22656, "iling</w>": 3299, "activists</w>": 12649, "vantage</w>": 31749, "arrow</w>": 11149, "solit": 37039, "djoker": 42721,
[...]
